<unk>	0
<|pad|>	0
<|bos|>	0
<|eos|>	0
<|user|>	0
<|assistant|>	0
<0x00>	0
<0x01>	0
<0x02>	0
<0x03>	0
<0x04>	0
<0x05>	0
<0x06>	0
<0x07>	0
<0x08>	0
<0x09>	0
<0x0A>	0
<0x0B>	0
<0x0C>	0
<0x0D>	0
<0x0E>	0
<0x0F>	0
<0x10>	0
<0x11>	0
<0x12>	0
<0x13>	0
<0x14>	0
<0x15>	0
<0x16>	0
<0x17>	0
<0x18>	0
<0x19>	0
<0x1A>	0
<0x1B>	0
<0x1C>	0
<0x1D>	0
<0x1E>	0
<0x1F>	0
<0x20>	0
<0x21>	0
<0x22>	0
<0x23>	0
<0x24>	0
<0x25>	0
<0x26>	0
<0x27>	0
<0x28>	0
<0x29>	0
<0x2A>	0
<0x2B>	0
<0x2C>	0
<0x2D>	0
<0x2E>	0
<0x2F>	0
<0x30>	0
<0x31>	0
<0x32>	0
<0x33>	0
<0x34>	0
<0x35>	0
<0x36>	0
<0x37>	0
<0x38>	0
<0x39>	0
<0x3A>	0
<0x3B>	0
<0x3C>	0
<0x3D>	0
<0x3E>	0
<0x3F>	0
<0x40>	0
<0x41>	0
<0x42>	0
<0x43>	0
<0x44>	0
<0x45>	0
<0x46>	0
<0x47>	0
<0x48>	0
<0x49>	0
<0x4A>	0
<0x4B>	0
<0x4C>	0
<0x4D>	0
<0x4E>	0
<0x4F>	0
<0x50>	0
<0x51>	0
<0x52>	0
<0x53>	0
<0x54>	0
<0x55>	0
<0x56>	0
<0x57>	0
<0x58>	0
<0x59>	0
<0x5A>	0
<0x5B>	0
<0x5C>	0
<0x5D>	0
<0x5E>	0
<0x5F>	0
<0x60>	0
<0x61>	0
<0x62>	0
<0x63>	0
<0x64>	0
<0x65>	0
<0x66>	0
<0x67>	0
<0x68>	0
<0x69>	0
<0x6A>	0
<0x6B>	0
<0x6C>	0
<0x6D>	0
<0x6E>	0
<0x6F>	0
<0x70>	0
<0x71>	0
<0x72>	0
<0x73>	0
<0x74>	0
<0x75>	0
<0x76>	0
<0x77>	0
<0x78>	0
<0x79>	0
<0x7A>	0
<0x7B>	0
<0x7C>	0
<0x7D>	0
<0x7E>	0
<0x7F>	0
<0x80>	0
<0x81>	0
<0x82>	0
<0x83>	0
<0x84>	0
<0x85>	0
<0x86>	0
<0x87>	0
<0x88>	0
<0x89>	0
<0x8A>	0
<0x8B>	0
<0x8C>	0
<0x8D>	0
<0x8E>	0
<0x8F>	0
<0x90>	0
<0x91>	0
<0x92>	0
<0x93>	0
<0x94>	0
<0x95>	0
<0x96>	0
<0x97>	0
<0x98>	0
<0x99>	0
<0x9A>	0
<0x9B>	0
<0x9C>	0
<0x9D>	0
<0x9E>	0
<0x9F>	0
<0xA0>	0
<0xA1>	0
<0xA2>	0
<0xA3>	0
<0xA4>	0
<0xA5>	0
<0xA6>	0
<0xA7>	0
<0xA8>	0
<0xA9>	0
<0xAA>	0
<0xAB>	0
<0xAC>	0
<0xAD>	0
<0xAE>	0
<0xAF>	0
<0xB0>	0
<0xB1>	0
<0xB2>	0
<0xB3>	0
<0xB4>	0
<0xB5>	0
<0xB6>	0
<0xB7>	0
<0xB8>	0
<0xB9>	0
<0xBA>	0
<0xBB>	0
<0xBC>	0
<0xBD>	0
<0xBE>	0
<0xBF>	0
<0xC0>	0
<0xC1>	0
<0xC2>	0
<0xC3>	0
<0xC4>	0
<0xC5>	0
<0xC6>	0
<0xC7>	0
<0xC8>	0
<0xC9>	0
<0xCA>	0
<0xCB>	0
<0xCC>	0
<0xCD>	0
<0xCE>	0
<0xCF>	0
<0xD0>	0
<0xD1>	0
<0xD2>	0
<0xD3>	0
<0xD4>	0
<0xD5>	0
<0xD6>	0
<0xD7>	0
<0xD8>	0
<0xD9>	0
<0xDA>	0
<0xDB>	0
<0xDC>	0
<0xDD>	0
<0xDE>	0
<0xDF>	0
<0xE0>	0
<0xE1>	0
<0xE2>	0
<0xE3>	0
<0xE4>	0
<0xE5>	0
<0xE6>	0
<0xE7>	0
<0xE8>	0
<0xE9>	0
<0xEA>	0
<0xEB>	0
<0xEC>	0
<0xED>	0
<0xEE>	0
<0xEF>	0
<0xF0>	0
<0xF1>	0
<0xF2>	0
<0xF3>	0
<0xF4>	0
<0xF5>	0
<0xF6>	0
<0xF7>	0
<0xF8>	0
<0xF9>	0
<0xFA>	0
<0xFB>	0
<0xFC>	0
<0xFD>	0
<0xFE>	0
<0xFF>	0
して	-0
った	-1
した	-2
ある	-3
って	-4
する	-5
され	-6
いる	-7
から	-8
ない	-9
こと	-10
である	-11
..	-12
いた	-13
では	-14
その	-15
には	-16
とい	-17
よう	-18
いて	-19
もの	-20
として	-21
られ	-22
この	-23
ている	-24
によ	-25
19	-26
など	-27
▁「	-28
20	-29
であ	-30
にな	-31
という	-32
それ	-33
された	-34
ため	-35
とな	-36
また	-37
日本	-38
です	-39
これ	-40
している	-41
....	-42
でも	-43
される	-44
かった	-45
っている	-46
ました	-47
われ	-48
まで	-49
がある	-50
なく	-51
ると	-52
00	-53
でき	-54
しか	-55
にお	-56
んだ	-57
にも	-58
しい	-59
ラン	-60
イン	-61
であった	-62
ール	-63
ことが	-64
されている	-65
ット	-66
リー	-67
なかった	-68
つた	-69
んで	-70
ター	-71
より	-72
あり	-73
スト	-74
の中	-75
とも	-76
ていた	-77
▁また	-78
さん	-79
ック	-80
つて	-81
おり	-82
▁この	-83
ように	-84
そう	-85
的な	-86
れる	-87
ーム	-88
れた	-89
ような	-90
ます	-91
れば	-92
によって	-93
、「	-94
10	-95
であり	-96
人の	-97
んな	-98
年に	-99
▁19	-100
のは	-101
られる	-102
ート	-103
ける	-104
200	-105
ード	-106
。」	-107
場合	-108
につ	-109
による	-110
けて	-111
していた	-112
とは	-113
しかし	-114
▁-	-115
しま	-116
なが	-117
により	-118
に対	-119
える	-120
なら	-121
18	-122
ので	-123
)、	-124
ことを	-125
▁その	-126
......	-127
だけ	-128
▁(	-129
との	-130
られた	-131
なる	-132
を見	-133
的に	-134
のだ	-135
において	-136
ながら	-137
めて	-138
の一	-139
ュー	-140
のです	-141
させ	-142
れて	-143
、19	-144
ころ	-145
になった	-146
ング	-147
)。	-148
ディ	-149
ませ	-150
大き	-151
あった	-152
多く	-153
となった	-154
っていた	-155
ント	-156
などの	-157
について	-158
しく	-159
かり	-160
けた	-161
ティ	-162
どう	-163
だった	-164
できる	-165
▁これ	-166
ろう	-167
12	-168
時代	-169
めた	-170
とする	-171
と呼	-172
コン	-173
世界	-174
えた	-175
自分	-176
えて	-177
年の	-178
ース	-179
への	-180
リカ	-181
リア	-182
ショ	-183
使用	-184
されて	-185
現在	-186
を持	-187
ライ	-188
ょう	-189
存在	-190
もある	-191
と思	-192
プロ	-193
になる	-194
私は	-195
11	-196
を行	-197
ために	-198
となる	-199
たち	-200
すると	-201
を受	-202
▁20	-203
での	-204
▁しかし	-205
日に	-206
すること	-207
列車	-208
ンの	-209
まり	-210
鉄道	-211
ファ	-212
東京	-213
ません	-214
アメ	-215
ほど	-216
ただ	-217
行われ	-218
同じ	-219
のみ	-220
可能	-221
なり	-222
うち	-223
アメリカ	-224
15	-225
と云	-226
間の	-227
もう	-228
いない	-229
ではない	-230
のである	-231
める	-232
こう	-233
そして	-234
ところ	-235
作品	-236
そこ	-237
ロー	-238
ンド	-239
きた	-240
ステ	-241
スタ	-242
つの	-243
なお	-244
er	-245
考え	-246
利用	-247
スの	-248
かに	-249
カー	-250
じゃ	-251
in	-252
取り	-253
ーク	-254
アル	-255
上の	-256
英語	-257
当時	-258
16	-259
とした	-260
レー	-261
られている	-262
後の	-263
ことは	-264
ゐる	-265
多い	-266
さら	-267
必要	-268
およ	-269
ジャ	-270
バー	-271
人は	-272
後に	-273
らの	-274
国の	-275
時に	-276
ップ	-277
日の	-278
17	-279
とき	-280
研究	-281
時間	-282
人が	-283
っと	-284
のように	-285
と呼ば	-286
一般	-287
にか	-288
のか	-289
りの	-290
しない	-291
――	-292
、20	-293
者の	-294
ション	-295
来た	-296
以降	-297
にある	-298
しょう	-299
意味	-300
関係	-301
なか	-302
の上	-303
マン	-304
年代	-305
の方	-306
らない	-307
のが	-308
問題	-309
大学	-310
いつ	-311
le	-312
開発	-313
上げ	-314
および	-315
世紀	-316
シャ	-317
あの	-318
運転	-319
における	-320
まま	-321
彼は	-322
on	-323
サー	-324
イル	-325
▁なお	-326
以下	-327
ければ	-328
になって	-329
13	-330
ばかり	-331
なん	-332
フィ	-333
があり	-334
に関	-335
事を	-336
に入	-337
チャ	-338
いました	-339
14	-340
昭和	-341
st	-342
されていた	-343
フラン	-344
リン	-345
いく	-346
だが	-347
ラー	-348
線の	-349
からの	-350
えば	-351
シア	-352
と言	-353
のような	-354
べて	-355
になり	-356
したが	-357
地域	-358
さらに	-359
シュ	-360
ルト	-361
an	-362
通り	-363
いい	-364
らず	-365
やう	-366
間に	-367
に対して	-368
前に	-369
ギリ	-370
の大	-371
せて	-372
さい	-373
出来	-374
ウェ	-375
なければ	-376
それを	-377
それは	-378
たり	-379
▁一	-380
ども	-381
をも	-382
▁{	-383
タイ	-384
日本の	-385
子の	-386
にして	-387
大きな	-388
われる	-389
フォ	-390
ルー	-391
主義	-392
まる	-393
います	-394
となっている	-395
影響	-396
をつ	-397
となり	-398
年には	-399
ここ	-400
ランド	-401
ージ	-402
▁200	-403
月に	-404
引き	-405
の人	-406
at	-407
ほか	-408
よりも	-409
学校	-410
られて	-411
まだ	-412
特に	-413
れている	-414
よく	-415
他の	-416
家の	-417
そんな	-418
れない	-419
キャ	-420
いで	-421
ものは	-422
戦争	-423
en	-424
都市	-425
is	-426
ゲーム	-427
ことも	-428
数の	-429
自動	-430
30	-431
出した	-432
グラ	-433
ジョ	-434
いは	-435
が発	-436
クラ	-437
言葉	-438
ルの	-439
」「	-440
、『	-441
テレ	-442
ものが	-443
んど	-444
ar	-445
前の	-446
りに	-447
を発	-448
放送	-449
だから	-450
たい	-451
ーン	-452
社会	-453
000	-454
ではなく	-455
いう	-456
部の	-457
多くの	-458
をか	-459
としては	-460
車両	-461
▁と	-462
イス	-463
イツ	-464
以外	-465
国際	-466
ものの	-467
英語版	-468
私の	-469
と呼ばれる	-470
しば	-471
彼の	-472
オー	-473
映画	-474
ゐた	-475
会社	-476
」(	-477
しており	-478
これは	-479
al	-480
ひと	-481
クト	-482
バス	-483
設置	-484
けれ	-485
開始	-486
ホーム	-487
21	-488
結果	-489
ものである	-490
アン	-491
がない	-492
があった	-493
つか	-494
ようになった	-495
いった	-496
については	-497
先生	-498
べき	-499
政府	-500
イヤ	-501
文字	-502
ちゃ	-503
中に	-504
たる	-505
平成	-506
者が	-507
部分	-508
or	-509
地方	-510
ことで	-511
とう	-512
ッド	-513
JR	-514
状態	-515
からは	-516
ただし	-517
者は	-518
ドイツ	-519
路線	-520
▁の	-521
いに	-522
自身	-523
サイ	-524
らしい	-525
la	-526
ベル	-527
自分の	-528
中心	-529
と同	-530
体の	-531
なった	-532
セン	-533
最も	-534
フト	-535
かな	-536
明治	-537
合わ	-538
事業	-539
用い	-540
ブル	-541
ネル	-542
いの	-543
させる	-544
▁日本	-545
50	-546
しまった	-547
なた	-548
様に	-549
人間	-550
ウム	-551
エン	-552
を含	-553
活動	-554
ニア	-555
』(	-556
いている	-557
登場	-558
ジェ	-559
事件	-560
まった	-561
▁S	-562
することが	-563
高い	-564
を持つ	-565
22	-566
ータ	-567
編成	-568
さんは	-569
サン	-570
をして	-571
を出	-572
にあ	-573
が行われ	-574
の名	-575
機関	-576
文化	-577
気が	-578
小説	-579
はない	-580
といった	-581
計画	-582
常に	-583
どこ	-584
度の	-585
ic	-586
力を	-587
、200	-588
少し	-589
テレビ	-590
ほと	-591
初の	-592
じて	-593
も知	-594
行く	-595
物の	-596
オン	-597
または	-598
80	-599
はじ	-600
に出	-601
中国	-602
せる	-603
フェ	-604
あなた	-605
せた	-606
音楽	-607
システ	-608
スク	-609
ともに	-610
ことから	-611
できない	-612
までの	-613
天皇	-614
レン	-615
▁これは	-616
以上	-617
のため	-618
システム	-619
ぞれ	-620
っても	-621
経済	-622
機能	-623
それが	-624
それぞれ	-625
にと	-626
すぐ	-627
パー	-628
に対する	-629
ほとんど	-630
シー	-631
女の	-632
ロッ	-633
起こ	-634
変更	-635
生活	-636
位置	-637
の下	-638
を得	-639
僕は	-640
を用	-641
それから	-642
技術	-643
運行	-644
わた	-645
といふ	-646
であるが	-647
子は	-648
立ち	-649
くる	-650
ても	-651
中の	-652
ありません	-653
フランス	-654
自然	-655
199	-656
手を	-657
ダー	-658
さま	-659
わけ	-660
としての	-661
記録	-662
ものを	-663
部屋	-664
自由	-665
などが	-666
とか	-667
構造	-668
イギリ	-669
実際	-670
▁ただし	-671
事が	-672
タン	-673
内の	-674
採用	-675
ラク	-676
言語	-677
代表	-678
▁1	-679
さう	-680
歴史	-681
はその	-682
だろう	-683
▁{\	-684
行き	-685
しました	-686
を通	-687
)」	-688
いか	-689
リスト	-690
25	-691
けれども	-692
ことに	-693
▁C	-694
▁は	-695
何か	-696
を行う	-697
人を	-698
感じ	-699
存在する	-700
建設	-701
乗り	-702
▁その後	-703
こんな	-704
第一	-705
二十	-706
大阪	-707
に見	-708
▁同	-709
政治	-710
大きく	-711
現在の	-712
クロ	-713
らく	-714
においては	-715
に分	-716
中央	-717
▁199	-718
▁A	-719
スター	-720
を受け	-721
は一	-722
らう	-723
などを	-724
キー	-725
のお	-726
立て	-727
プレ	-728
運動	-729
アー	-730
▁『	-731
のに	-732
物を	-733
子供	-734
23	-735
付け	-736
いや	-737
じゃない	-738
基本	-739
すべて	-740
ソフト	-741
リーズ	-742
するため	-743
60	-744
これを	-745
少年	-746
交通	-747
の中で	-748
ナー	-749
があ	-750
君は	-751
の中に	-752
らは	-753
ヴィ	-754
漫画	-755
ッチ	-756
ならない	-757
とされる	-758
目的	-759
をした	-760
が出	-761
生産	-762
が一	-763
構成	-764
異なる	-765
ンは	-766
ニュー	-767
ヴァ	-768
}}	-769
用の	-770
になっている	-771
以下の	-772
もし	-773
と同じ	-774
自動車	-775
表現	-776
スは	-777
をと	-778
の発	-779
あるいは	-780
it	-781
シリーズ	-782
ジア	-783
しても	-784
ブラ	-785
場合は	-786
▁P	-787
情報	-788
を使	-789
のある	-790
▁2	-791
はい	-792
導入	-793
江戸	-794
のを	-795
国家	-796
わる	-797
設定	-798
であつた	-799
開催	-800
なかつた	-801
来の	-802
を与	-803
yst	-804
ウィ	-805
等の	-806
テン	-807
教育	-808
トル	-809
区間	-810
んでいる	-811
と考え	-812
スペ	-813
参照	-814
▁M	-815
当時の	-816
全て	-817
しまう	-818
に関する	-819
思い	-820
々の	-821
のも	-822
ヨー	-823
70	-824
ゆる	-825
変化	-826
さんの	-827
入れ	-828
もので	-829
しの	-830
落ち	-831
科学	-832
重要	-833
らい	-834
データ	-835
明智	-836
▁一方	-837
カード	-838
方法	-839
▁ア	-840
子が	-841
を指	-842
わず	-843
トリ	-844
場所	-845
新聞	-846
来る	-847
かつて	-848
組み	-849
までは	-850
普通	-851
子を	-852
とし	-853
行った	-854
されており	-855
共に	-856
▁大	-857
。「	-858
理由	-859
当初	-860
人に	-861
高速	-862
▁m	-863
24	-864
しろ	-865
のために	-866
決定	-867
年から	-868
コー	-869
かる	-870
っぱ	-871
第二	-872
エル	-873
の手	-874
文学	-875
もない	-876
re	-877
んです	-878
ナル	-879
目の	-880
ポー	-881
マル	-882
時の	-883
なって	-884
時期	-885
みんな	-886
わり	-887
定義	-888
表記	-889
ござ	-890
らか	-891
カル	-892
と見	-893
▁18	-894
へと	-895
われた	-896
小さ	-897
事実	-898
かけ	-899
さえ	-900
ネット	-901
ずれ	-902
及び	-903
dis	-904
挙げ	-905
pla	-906
ac	-907
のうち	-908
販売	-909
マー	-910
独立	-911
トン	-912
的には	-913
......」	-914
レス	-915
ion	-916
、1	-917
ケット	-918
攻撃	-919
最大	-920
を作	-921
yle	-922
40	-923
にした	-924
書き	-925
度は	-926
ギー	-927
地下	-928
方面	-929
比較	-930
廃止	-931
ッと	-932
ol	-933
と云う	-934
太郎	-935
帝国	-936
すれば	-937
非常に	-938
ロシア	-939
に向	-940
切り	-941
マイ	-942
道路	-943
電気	-944
ハハ	-945
が見	-946
くり	-947
せず	-948
停車	-949
しながら	-950
述べ	-951
性を	-952
、2	-953
ごと	-954
だけで	-955
displa	-956
もなく	-957
させた	-958
規模	-959
ystyle	-960
displaystyle	-961
駅間	-962
ことがある	-963
にて	-964
ウン	-965
デル	-966
完全	-967
対象	-968
を一	-969
いま	-970
そうして	-971
それに	-972
バイ	-973
が生	-974
例えば	-975
まれた	-976
電車	-977
っており	-978
国民	-979
やが	-980
アニ	-981
ウス	-982
内に	-983
事は	-984
km	-985
インド	-986
としている	-987
イギリス	-988
ロッパ	-989
であったが	-990
方式	-991
を除	-992
テー	-993
そこで	-994
いろ	-995
ヨーロッパ	-996
来て	-997
はこの	-998
きました	-999
様々	-1000
アイ	-1001
支配	-1002
調査	-1003
特急	-1004
を中心	-1005
通常	-1006
性の	-1007
地の	-1008
宇宙	-1009
、199	-1010
パン	-1011
ピュー	-1012
製造	-1013
発売	-1014
でしょう	-1015
IC	-1016
管理	-1017
かれた	-1018
軍の	-1019
やす	-1020
初期	-1021
あげ	-1022
電話	-1023
数は	-1024
距離	-1025
のこと	-1026
?」	-1027
相手	-1028
打ち	-1029
をする	-1030
であろう	-1031
表示	-1032
ことができる	-1033
女は	-1034
一方	-1035
ラス	-1036
主に	-1037
参加	-1038
シン	-1039
コンピュー	-1040
しは	-1041
▁T	-1042
ほう	-1043
われている	-1044
開業	-1045
ニー	-1046
モン	-1047
上に	-1048
説明	-1049
過ぎ	-1050
改正	-1051
かい	-1052
を使用	-1053
探偵	-1054
に至	-1055
ローマ	-1056
チェ	-1057
初めて	-1058
時点	-1059
ックス	-1060
発表	-1061
あら	-1062
含ま	-1063
月の	-1064
とともに	-1065
色の	-1066
しよう	-1067
施設	-1068
り返	-1069
ちゃん	-1070
の一部	-1071
he	-1072
急行	-1073
に対し	-1074
ダイヤ	-1075
強い	-1076
を経	-1077
以上の	-1078
タル	-1079
様な	-1080
ユー	-1081
航空	-1082
の主	-1083
生き	-1084
選手	-1085
監督	-1086
大な	-1087
のない	-1088
カン	-1089
現代	-1090
よい	-1091
小林	-1092
ーション	-1093
組織	-1094
と思う	-1095
▁さらに	-1096
ほぼ	-1097
ものだ	-1098
かも知	-1099
委員	-1100
いだ	-1101
つつ	-1102
に移	-1103
の間	-1104
を含む	-1105
ビア	-1106
顔を	-1107
京都	-1108
全く	-1109
198	-1110
国内	-1111
なんだ	-1112
時代の	-1113
しゃ	-1114
方が	-1115
ラム	-1116
は大	-1117
特徴	-1118
認め	-1119
持ち	-1120
100	-1121
を示	-1122
議会	-1123
ループ	-1124
じた	-1125
ro	-1126
の一つ	-1127
単位	-1128
こともある	-1129
一つ	-1130
▁そして	-1131
きの	-1132
ジン	-1133
特別	-1134
様々な	-1135
29	-1136
博士	-1137
さんが	-1138
くれ	-1139
共和	-1140
▁が	-1141
28	-1142
番組	-1143
性が	-1144
の上に	-1145
つまり	-1146
程度	-1147
やり	-1148
定の	-1149
実施	-1150
選挙	-1151
海道	-1152
云う	-1153
ハン	-1154
白い	-1155
あと	-1156
かれ	-1157
▁t	-1158
乗車	-1159
年間	-1160
を取	-1161
その後	-1162
えない	-1163
出す	-1164
長い	-1165
込み	-1166
したり	-1167
ちら	-1168
を取り	-1169
語の	-1170
26	-1171
一人	-1172
に近	-1173
種類	-1174
内容	-1175
▁=	-1176
最高	-1177
無い	-1178
年度	-1179
体を	-1180
教会	-1181
に基	-1182
終了	-1183
リーグ	-1184
▁B	-1185
すぎ	-1186
▁3	-1187
OS	-1188
形式	-1189
環境	-1190
装置	-1191
チーム	-1192
成立	-1193
でした	-1194
27	-1195
形成	-1196
リング	-1197
対応	-1198
最終	-1199
コード	-1200
連合	-1201
うちに	-1202
出して	-1203
向け	-1204
平均	-1205
統領	-1206
ジュ	-1207
政権	-1208
es	-1209
以外の	-1210
コンピュータ	-1211
直通	-1212
精神	-1213
スタン	-1214
ドル	-1215
を結	-1216
たちは	-1217
企業	-1218
しさ	-1219
メン	-1220
周辺	-1221
ハイ	-1222
まい	-1223
と呼ぶ	-1224
つけ	-1225
一の	-1226
直接	-1227
本線	-1228
出て	-1229
通信	-1230
いていた	-1231
ねえ	-1232
見た	-1233
ビス	-1234
アク	-1235
朝鮮	-1236
グループ	-1237
アニメ	-1238
ロン	-1239
に基づ	-1240
ッシュ	-1241
えている	-1242
側の	-1243
カリ	-1244
受け	-1245
になると	-1246
あまり	-1247
体が	-1248
試合	-1249
やがて	-1250
早く	-1251
メート	-1252
▁を	-1253
いずれ	-1254
、3	-1255
などで	-1256
はじめ	-1257
に伴	-1258
気の	-1259
られていた	-1260
方の	-1261
評価	-1262
▁I	-1263
▁それ	-1264
コミ	-1265
理論	-1266
条件	-1267
種の	-1268
中で	-1269
を受けた	-1270
はず	-1271
アフ	-1272
、18	-1273
バン	-1274
まるで	-1275
再び	-1276
の前	-1277
計算	-1278
が多い	-1279
逃げ	-1280
▁198	-1281
搭載	-1282
おれ	-1283
出し	-1284
プログラ	-1285
▁R	-1286
et	-1287
まず	-1288
ガン	-1289
もあり	-1290
el	-1291
っち	-1292
▁)	-1293
運用	-1294
どんな	-1295
が進	-1296
人口	-1297
今日	-1298
次の	-1299
標準	-1300
イタ	-1301
主張	-1302
ドラ	-1303
やうに	-1304
ウェア	-1305
目を	-1306
知ら	-1307
まれ	-1308
整備	-1309
do	-1310
設立	-1311
ッカー	-1312
際に	-1313
指定	-1314
たら	-1315
成功	-1316
なし	-1317
様の	-1318
用いられる	-1319
かく	-1320
ザー	-1321
日には	-1322
シェ	-1323
によると	-1324
くと	-1325
▁D	-1326
状況	-1327
線を	-1328
輸送	-1329
宗教	-1330
接続	-1331
けない	-1332
アラ	-1333
プリ	-1334
つき	-1335
地区	-1336
産業	-1337
つてゐる	-1338
増加	-1339
者を	-1340
飛行	-1341
ヴェ	-1342
まって	-1343
たと	-1344
と共に	-1345
空港	-1346
新しい	-1347
系の	-1348
電子	-1349
ジョン	-1350
反対	-1351
下の	-1352
後は	-1353
地球	-1354
ところが	-1355
エネル	-1356
▁E	-1357
スー	-1358
だと	-1359
新た	-1360
_{	-1361
快速	-1362
あれ	-1363
学生	-1364
銀行	-1365
プラ	-1366
上で	-1367
ズム	-1368
私が	-1369
高く	-1370
197	-1371
▁本	-1372
思想	-1373
がり	-1374
かって	-1375
広く	-1376
エネルギー	-1377
に就	-1378
時は	-1379
前は	-1380
日から	-1381
ること	-1382
▁c	-1383
獲得	-1384
くら	-1385
提供	-1386
▁F	-1387
分の	-1388
効果	-1389
んでいた	-1390
ーカー	-1391
▁L	-1392
大統領	-1393
時には	-1394
▁そのため	-1395
トラ	-1396
読み	-1397
ビュー	-1398
ではないか	-1399
細胞	-1400
やうな	-1401
同時に	-1402
違い	-1403
労働	-1404
本の	-1405
に相	-1406
▁G	-1407
力の	-1408
方向	-1409
批判	-1410
ジオ	-1411
営業	-1412
制作	-1413
▁三	-1414
ちょ	-1415
普及	-1416
同年	-1417
までに	-1418
場の	-1419
ファン	-1420
々に	-1421
ダム	-1422
処理	-1423
の原	-1424
部に	-1425
にとって	-1426
設計	-1427
31	-1428
君の	-1429
などに	-1430
芸術	-1431
ナイ	-1432
料理	-1433
レイ	-1434
が必要	-1435
人物	-1436
動物	-1437
リオ	-1438
番号	-1439
していたが	-1440
西洋	-1441
りを	-1442
会議	-1443
ディア	-1444
条約	-1445
太陽	-1446
ろしい	-1447
いわ	-1448
プト	-1449
分野	-1450
新幹	-1451
軌道	-1452
ごろ	-1453
のもの	-1454
ジャン	-1455
地に	-1456
化した	-1457
ーター	-1458
意識	-1459
できた	-1460
民族	-1461
でない	-1462
一度	-1463
っとも	-1464
されたが	-1465
ずに	-1466
完成	-1467
公開	-1468
体は	-1469
om	-1470
を表	-1471
いき	-1472
メートル	-1473
年は	-1474
必ず	-1475
古代	-1476
警察	-1477
郎は	-1478
大戦	-1479
の外	-1480
▁p	-1481
デン	-1482
なければならない	-1483
じる	-1484
に加	-1485
形で	-1486
公式	-1487
AT	-1488
▁こう	-1489
らが	-1490
名称	-1491
」、	-1492
制度	-1493
かない	-1494
を行った	-1495
られない	-1496
金属	-1497
をお	-1498
学者	-1499
ソン	-1500
あた	-1501
数が	-1502
記述	-1503
力が	-1504
デザ	-1505
全国	-1506
担当	-1507
やって	-1508
そのまま	-1509
にかけて	-1510
ダイ	-1511
裁判	-1512
▁N	-1513
サービス	-1514
概念	-1515
クス	-1516
写真	-1517
かう	-1518
作家	-1519
を利用	-1520
最初の	-1521
っき	-1522
までも	-1523
空間	-1524
手に	-1525
を開始	-1526
メント	-1527
月には	-1528
わった	-1529
側に	-1530
かし	-1531
いなかった	-1532
テル	-1533
を見て	-1534
小さな	-1535
学の	-1536
長の	-1537
ざる	-1538
実験	-1539
製作	-1540
と一	-1541
別の	-1542
たく	-1543
発生	-1544
はり	-1545
競馬	-1546
僕の	-1547
委員会	-1548
雑誌	-1549
リス	-1550
結婚	-1551
駅の	-1552
,000	-1553
名の	-1554
人間の	-1555
トロ	-1556
めている	-1557
行って	-1558
女性	-1559
am	-1560
ワー	-1561
するが	-1562
セル	-1563
かね	-1564
製品	-1565
▁私は	-1566
山の	-1567
線が	-1568
▁d	-1569
過去	-1570
45	-1571
かわ	-1572
ドア	-1573
大臣	-1574
イタリア	-1575
かの	-1576
規定	-1577
報告	-1578
拡大	-1579
キリスト	-1580
アジア	-1581
期間	-1582
ールド	-1583
するために	-1584
傾向	-1585
などは	-1586
ブリ	-1587
大会	-1588
▁中	-1589
由来	-1590
によれば	-1591
に一	-1592
りました	-1593
がる	-1594
しも	-1595
合衆	-1596
気を	-1597
連続	-1598
安定	-1599
憲法	-1600
ゅう	-1601
バル	-1602
発見	-1603
少なく	-1604
められた	-1605
これが	-1606
後半	-1607
かけて	-1608
なわ	-1609
生物	-1610
列車が	-1611
最初	-1612
飛び	-1613
みな	-1614
所の	-1615
記念	-1616
戦闘	-1617
まえ	-1618
重要な	-1619
することを	-1620
両編成	-1621
量の	-1622
パイ	-1623
共同	-1624
型の	-1625
きて	-1626
十分	-1627
発展	-1628
下に	-1629
を開	-1630
分類	-1631
ああ	-1632
々と	-1633
しばらく	-1634
呼び	-1635
社の	-1636
性質	-1637
展開	-1638
事に	-1639
次第	-1640
ラクター	-1641
▁n	-1642
▁s	-1643
ならぬ	-1644
196	-1645
こそ	-1646
▁H	-1647
ぼく	-1648
ライン	-1649
りで	-1650
らしく	-1651
つも	-1652
政策	-1653
有名	-1654
スコ	-1655
旅客	-1656
悪い	-1657
紀元	-1658
見ると	-1659
出版	-1660
となって	-1661
以降は	-1662
予定	-1663
古屋	-1664
物語	-1665
なぜ	-1666
行われた	-1667
ですから	-1668
チン	-1669
制御	-1670
のち	-1671
式の	-1672
ビー	-1673
これらの	-1674
使われる	-1675
しては	-1676
▁近	-1677
センター	-1678
民主	-1679
モデル	-1680
を占	-1681
▁f	-1682
呼ば	-1683
つく	-1684
保護	-1685
しくは	-1686
面に	-1687
ことが多い	-1688
▁特に	-1689
連邦	-1690
以来	-1691
48	-1692
要素	-1693
動き	-1694
わない	-1695
▁W	-1696
ほん	-1697
▁例えば	-1698
統一	-1699
行為	-1700
少ない	-1701
物質	-1702
▁現在	-1703
ri	-1704
事務	-1705
を求	-1706
集合	-1707
作用	-1708
連載	-1709
思議	-1710
車の	-1711
りと	-1712
専門	-1713
を生	-1714
ボー	-1715
ロック	-1716
可能な	-1717
としても	-1718
区別	-1719
だって	-1720
しき	-1721
駅で	-1722
を受けて	-1723
実現	-1724
氏の	-1725
付近	-1726
us	-1727
ては	-1728
移動	-1729
を有	-1730
を聞	-1731
ますと	-1732
幕府	-1733
入り	-1734
原子	-1735
改札	-1736
いが	-1737
スカ	-1738
なくなった	-1739
くに	-1740
食べ	-1741
軍事	-1742
強く	-1743
優勝	-1744
しが	-1745
リと	-1746
伝統	-1747
されていない	-1748
助は	-1749
始めた	-1750
じゃないか	-1751
どうか	-1752
実に	-1753
速度	-1754
名古屋	-1755
黒い	-1756
▁197	-1757
キャラクター	-1758
の場合	-1759
工業	-1760
ダン	-1761
▁これらの	-1762
アメリカ合衆	-1763
たび	-1764
of	-1765
流れ	-1766
あたり	-1767
as	-1768
が発生	-1769
ですか	-1770
していない	-1771
確認	-1772
市の	-1773
所に	-1774
を知	-1775
の影響	-1776
イド	-1777
オリ	-1778
.5	-1779
独自	-1780
者に	-1781
著作	-1782
定期	-1783
共和国	-1784
することで	-1785
を見た	-1786
革命	-1787
を参照	-1788
NA	-1789
らぬ	-1790
はや	-1791
観光	-1792
デザイン	-1793
規格	-1794
を目	-1795
ガー	-1796
相互	-1797
、198	-1798
IS	-1799
の家	-1800
に立	-1801
横浜	-1802
すなわ	-1803
すなわち	-1804
だか	-1805
公園	-1806
ビル	-1807
ならば	-1808
インター	-1809
スが	-1810
ついて	-1811
ポン	-1812
にする	-1813
35	-1814
世界大戦	-1815
外国	-1816
ペン	-1817
化学	-1818
しみ	-1819
大きい	-1820
だよ	-1821
と云ふ	-1822
すで	-1823
始め	-1824
させて	-1825
っかり	-1826
ールの	-1827
部は	-1828
反応	-1829
▁東	-1830
に当	-1831
所属	-1832
出来る	-1833
注意	-1834
しなかった	-1835
ようになり	-1836
ッキ	-1837
行動	-1838
il	-1839
手紙	-1840
試験	-1841
であると	-1842
てて	-1843
せん	-1844
ちが	-1845
もあった	-1846
次世界大戦	-1847
果た	-1848
しかも	-1849
十二	-1850
ジャー	-1851
が大	-1852
契約	-1853
行政	-1854
換え	-1855
機の	-1856
ございます	-1857
時代に	-1858
子に	-1859
)・	-1860
軍は	-1861
を持ち	-1862
を下	-1863
ならず	-1864
笑い	-1865
経営	-1866
レース	-1867
演奏	-1868
酸化	-1869
続け	-1870
が多く	-1871
▁新	-1872
掲載	-1873
シーズ	-1874
言う	-1875
チャン	-1876
形の	-1877
すべき	-1878
かも知れない	-1879
述の	-1880
ation	-1881
なもの	-1882
機械	-1883
不思議	-1884
内閣	-1885
下さい	-1886
でもある	-1887
交換	-1888
やる	-1889
ソ連	-1890
ほどの	-1891
さが	-1892
障害	-1893
と思った	-1894
島の	-1895
かれる	-1896
▁4	-1897
自身の	-1898
込んだ	-1899
建築	-1900
名を	-1901
かつ	-1902
系統	-1903
制限	-1904
範囲	-1905
男の	-1906
手の	-1907
▁お	-1908
においても	-1909
勝利	-1910
正式	-1911
共通	-1912
日は	-1913
チョ	-1914
ざま	-1915
あって	-1916
数を	-1917
運営	-1918
彼女	-1919
限り	-1920
っくり	-1921
物理	-1922
大陸	-1923
置き	-1924
▁a	-1925
つと	-1926
出身	-1927
記憶	-1928
ed	-1929
部隊	-1930
小さい	-1931
PC	-1932
目に	-1933
なんて	-1934
法律	-1935
地上	-1936
基準	-1937
』『	-1938
安全	-1939
事の	-1940
▁彼は	-1941
っぱり	-1942
に従	-1943
ポーツ	-1944
ing	-1945
込んで	-1946
法の	-1947
舞台	-1948
たちの	-1949
名は	-1950
案内	-1951
神戸	-1952
線は	-1953
いくつか	-1954
最後の	-1955
わざ	-1956
したもの	-1957
男は	-1958
われて	-1959
関連	-1960
金を	-1961
▁V	-1962
ch	-1963
体制	-1964
ディー	-1965
げて	-1966
人と	-1967
ent	-1968
わたく	-1969
現象	-1970
▁x	-1971
ピア	-1972
そこに	-1973
九州	-1974
万円	-1975
東京都	-1976
面の	-1977
当初は	-1978
すでに	-1979
比較的	-1980
世の	-1981
本当	-1982
、4	-1983
若い	-1984
見る	-1985
しに	-1986
クラブ	-1987
れていた	-1988
連絡	-1989
90	-1990
ぐら	-1991
生の	-1992
きみ	-1993
何も	-1994
北海道	-1995
ベース	-1996
▁第	-1997
ひど	-1998
音が	-1999
とされている	-2000
ワーク	-2001
ハー	-2002
協会	-2003
競技	-2004
げた	-2005
多数	-2006
指摘	-2007
32	-2008
ピー	-2009
長は	-2010
用語	-2011
▁0	-2012
▁上	-2013
わって	-2014
マス	-2015
地を	-2016
人で	-2017
(18	-2018
人々	-2019
メーカー	-2020
ジー	-2021
と称	-2022
皇帝	-2023
声が	-2024
が設置	-2025
どうも	-2026
紀元前	-2027
ですよ	-2028
することは	-2029
単に	-2030
観測	-2031
に対応	-2032
のだから	-2033
▁196	-2034
自ら	-2035
を中心に	-2036
プログラム	-2037
自治	-2038
記の	-2039
ひとつ	-2040
スキー	-2041
してお	-2042
スポーツ	-2043
un	-2044
の中心	-2045
を指す	-2046
しばしば	-2047
気持	-2048
タイプ	-2049
複数の	-2050
口を	-2051
支援	-2052
かえ	-2053
に比	-2054
川の	-2055
維持	-2056
に変	-2057
当駅	-2058
続き	-2059
申し	-2060
領域	-2061
の後	-2062
支持	-2063
被害	-2064
りが	-2065
自分は	-2066
をもって	-2067
スを	-2068
実行	-2069
ノー	-2070
全体	-2071
しょ	-2072
好き	-2073
広島	-2074
ったり	-2075
判断	-2076
将軍	-2077
を発表	-2078
に応	-2079
仏教	-2080
まあ	-2081
が存在	-2082
スペイン	-2083
195	-2084
II	-2085
撮影	-2086
を引き	-2087
減少	-2088
合わせ	-2089
アフリカ	-2090
理解	-2091
を採用	-2092
のでしょう	-2093
低い	-2094
みたい	-2095
をた	-2096
内で	-2097
みた	-2098
位の	-2099
なっている	-2100
くなる	-2101
の本	-2102
まと	-2103
信号	-2104
既に	-2105
ことになる	-2106
妙な	-2107
新幹線	-2108
フレ	-2109
首都	-2110
でもない	-2111
ur	-2112
が行われた	-2113
眼を	-2114
主要	-2115
ポート	-2116
ソフトウェア	-2117
考える	-2118
を描	-2119
するという	-2120
代の	-2121
メディア	-2122
困難	-2123
込む	-2124
繰り返	-2125
可能性	-2126
犯罪	-2127
結合	-2128
ぢや	-2129
を加	-2130
を書	-2131
からも	-2132
二人の	-2133
つてゐた	-2134
列車は	-2135
のア	-2136
36	-2137
馬鹿	-2138
の国	-2139
経験	-2140
追加	-2141
指導	-2142
やら	-2143
太平	-2144
機器	-2145
決して	-2146
考えて	-2147
くれた	-2148
を超	-2149
チュ	-2150
のでした	-2151
ではなかった	-2152
づけ	-2153
市場	-2154
500	-2155
えられた	-2156
▁b	-2157
一部	-2158
期の	-2159
禁止	-2160
降り	-2161
ることが	-2162
人も	-2163
するもの	-2164
要求	-2165
めていた	-2166
別に	-2167
意見	-2168
たない	-2169
三十	-2170
ティー	-2171
▁ここ	-2172
元の	-2173
派の	-2174
ジェクト	-2175
役割	-2176
押し	-2177
。......	-2178
オリン	-2179
深い	-2180
議員	-2181
合わせて	-2182
一般に	-2183
だったが	-2184
▁小	-2185
下り	-2186
フリー	-2187
まっ	-2188
専用	-2189
▁このため	-2190
形態	-2191
なども	-2192
卒業	-2193
認識	-2194
物は	-2195
考へ	-2196
可能である	-2197
野球	-2198
ふと	-2199
。――	-2200
詳細	-2201
まして	-2202
キリスト教	-2203
すが	-2204
、197	-2205
エンジン	-2206
それで	-2207
西日本	-2208
病院	-2209
▁高	-2210
君が	-2211
度が	-2212
に伴い	-2213
をひ	-2214
いわゆる	-2215
ig	-2216
駅に	-2217
ではありません	-2218
を行い	-2219
広い	-2220
解釈	-2221
の地	-2222
カメ	-2223
遺伝	-2224
をし	-2225
グレ	-2226
全ての	-2227
ra	-2228
紹介	-2229
美術	-2230
のだが	-2231
もしくは	-2232
配置	-2233
住民	-2234
ぶん	-2235
家庭	-2236
の高	-2237
デジ	-2238
オス	-2239
貨物	-2240
すぐに	-2241
作曲	-2242
競走	-2243
だの	-2244
を経て	-2245
モリ	-2246
とその	-2247
が始	-2248
みに	-2249
ついた	-2250
オースト	-2251
元素	-2252
に近い	-2253
文書	-2254
が存在する	-2255
容易	-2256
やはり	-2257
誕生	-2258
ちょう	-2259
に変更	-2260
オペ	-2261
▁前	-2262
東日本	-2263
ws	-2264
諸国	-2265
AS	-2266
」、「	-2267
金の	-2268
からない	-2269
見え	-2270
対立	-2271
が主	-2272
{\	-2273
作業	-2274
をは	-2275
以前	-2276
が起	-2277
株式	-2278
モノ	-2279
旅行	-2280
ユニ	-2281
キュ	-2282
ワン	-2283
神経	-2284
登録	-2285
毎日	-2286
ための	-2287
▁6	-2288
ルム	-2289
設け	-2290
秘密	-2291
ずる	-2292
大正	-2293
帰って	-2294
駅から	-2295
総合	-2296
然し	-2297
からである	-2298
日本語	-2299
たとえば	-2300
いと	-2301
きに	-2302
シーズン	-2303
地下鉄	-2304
は不	-2305
宣言	-2306
段階	-2307
作戦	-2308
機構	-2309
.0	-2310
ッツ	-2311
らなかった	-2312
をしている	-2313
の戦	-2314
方に	-2315
現実	-2316
アメリカ合衆国	-2317
命令	-2318
ケー	-2319
手が	-2320
シング	-2321
危険	-2322
したのは	-2323
間で	-2324
時点で	-2325
トリック	-2326
責任	-2327
ダイヤ改正	-2328
人員	-2329
人民	-2330
東北	-2331
心を	-2332
らん	-2333
してゐる	-2334
いつも	-2335
だけの	-2336
、5	-2337
年頃	-2338
化された	-2339
物が	-2340
成長	-2341
電鉄	-2342
することができる	-2343
されていたが	-2344
▁北	-2345
アッ	-2346
家に	-2347
あん	-2348
突然	-2349
するなど	-2350
もっとも	-2351
ごとに	-2352
一部の	-2353
したため	-2354
どうして	-2355
um	-2356
少女	-2357
だつた	-2358
むしろ	-2359
ギリシア	-2360
▁5	-2361
バラ	-2362
回転	-2363
家は	-2364
マーク	-2365
アナ	-2366
さまざま	-2367
を果た	-2368
美しい	-2369
かす	-2370
事故	-2371
の長	-2372
スピ	-2373
立場	-2374
トラン	-2375
ほかに	-2376
古い	-2377
▁O	-2378
力は	-2379
共産	-2380
近代	-2381
千葉	-2382
団体	-2383
後も	-2384
破壊	-2385
木の	-2386
indo	-2387
国鉄	-2388
というのは	-2389
第三	-2390
ずつ	-2391
ウル	-2392
と言う	-2393
業務	-2394
に至る	-2395
必要がある	-2396
33	-2397
ようになる	-2398
海軍	-2399
2000	-2400
クレ	-2401
価格	-2402
屋の	-2403
線に	-2404
上り	-2405
消費	-2406
たちが	-2407
1,	-2408
を解	-2409
がって	-2410
っしゃ	-2411
を受ける	-2412
いら	-2413
ティング	-2414
氏は	-2415
立つ	-2416
パリ	-2417
フラ	-2418
名前	-2419
ミン	-2420
いを	-2421
の中には	-2422
ことになった	-2423
あるが	-2424
クリ	-2425
に属	-2426
編集	-2427
ちょっと	-2428
どの	-2429
個人	-2430
かれて	-2431
▁10	-2432
うる	-2433
ウォ	-2434
実は	-2435
アド	-2436
を意味	-2437
他に	-2438
ピック	-2439
近く	-2440
に限	-2441
量は	-2442
市民	-2443
やく	-2444
高等	-2445
▁of	-2446
すべての	-2447
性能	-2448
▁\	-2449
▁二	-2450
選択	-2451
いくら	-2452
議論	-2453
デジタル	-2454
たま	-2455
しまいました	-2456
ガル	-2457
合併	-2458
いため	-2459
ねて	-2460
を失	-2461
グル	-2462
エジ	-2463
の方が	-2464
云った	-2465
アメリカの	-2466
かと	-2467
ビット	-2468
38	-2469
47	-2470
アクセ	-2471
、196	-2472
自己	-2473
月から	-2474
ナン	-2475
indows	-2476
かれている	-2477
やっぱり	-2478
de	-2479
と述べ	-2480
一つの	-2481
点を	-2482
考えた	-2483
げる	-2484
漢字	-2485
する場合	-2486
いても	-2487
最大の	-2488
46	-2489
ut	-2490
........	-2491
向う	-2492
からだ	-2493
ズの	-2494
否定	-2495
工場	-2496
だけは	-2497
いずれも	-2498
をはじめ	-2499
お前	-2500
関東	-2501
活躍	-2502
ワイ	-2503
になっていた	-2504
制定	-2505
商品	-2506
見える	-2507
んに	-2508
あらゆる	-2509
発着	-2510
出来ない	-2511
▁かつて	-2512
なさ	-2513
に於	-2514
声で	-2515
ラジオ	-2516
収録	-2517
商業	-2518
原因	-2519
がった	-2520
ッジ	-2521
使用される	-2522
んと	-2523
の女	-2524
ですが	-2525
の中へ	-2526
付き	-2527
記載	-2528
であらう	-2529
好い	-2530
などと	-2531
であります	-2532
▁J	-2533
をあ	-2534
関数	-2535
アップ	-2536
サイト	-2537
言い	-2538
のための	-2539
操作	-2540
、――	-2541
レク	-2542
話を	-2543
以降の	-2544
クル	-2545
os	-2546
発電	-2547
統合	-2548
44	-2549
国道	-2550
のよ	-2551
戦車	-2552
価値	-2553
設備	-2554
上げた	-2555
▁X	-2556
を着	-2557
適用	-2558
駅舎	-2559
ラテン	-2560
しら	-2561
るが	-2562
父の	-2563
特殊	-2564
だい	-2565
イスラ	-2566
にあった	-2567
(20	-2568
ナム	-2569
含まれる	-2570
ct	-2571
ライト	-2572
られており	-2573
の出	-2574
パラ	-2575
様子	-2576
そうな	-2577
ボン	-2578
RO	-2579
思ひ	-2580
見て	-2581
しているが	-2582
コロ	-2583
などがある	-2584
心の	-2585
証明	-2586
ませんで	-2587
デビュー	-2588
を持って	-2589
▁7	-2590
▁9	-2591
外の	-2592
なぞ	-2593
シャル	-2594
者も	-2595
37	-2596
いって	-2597
フル	-2598
バンド	-2599
四十	-2600
権を	-2601
▁同年	-2602
もと	-2603
線路	-2604
タイトル	-2605
更に	-2606
動作	-2607
声を	-2608
栽培	-2609
時計	-2610
朝の	-2611
太平洋	-2612
まれる	-2613
を用いて	-2614
線と	-2615
絶対	-2616
イスラム	-2617
さない	-2618
の生	-2619
してきた	-2620
やすい	-2621
崩壊	-2622
そうに	-2623
を示す	-2624
CD	-2625
im	-2626
が開	-2627
の小	-2628
王国	-2629
検討	-2630
向上	-2631
楽器	-2632
左右	-2633
心配	-2634
手段	-2635
結局	-2636
駅は	-2637
されない	-2638
に改	-2639
34	-2640
拡張	-2641
徳川	-2642
▁マ	-2643
購入	-2644
さんに	-2645
おそ	-2646
を務	-2647
彼女は	-2648
次第に	-2649
男が	-2650
の実	-2651
メージ	-2652
発行	-2653
集団	-2654
千代	-2655
温泉	-2656
極めて	-2657
▁km	-2658
異なり	-2659
ミー	-2660
まさ	-2661
を訪	-2662
リズム	-2663
第二次世界大戦	-2664
の事	-2665
すと	-2666
二人	-2667
富士	-2668
の前に	-2669
イング	-2670
アルバ	-2671
分離	-2672
掛け	-2673
交流	-2674
ハード	-2675
!」	-2676
かが	-2677
は無	-2678
新たな	-2679
▁195	-2680
兵器	-2681
振り	-2682
ったが	-2683
いち	-2684
の如	-2685
信仰	-2686
けれど	-2687
行う	-2688
身を	-2689
とり	-2690
わが	-2691
モー	-2692
確立	-2693
ポリ	-2694
を用いる	-2695
の三	-2696
セット	-2697
キロ	-2698
田は	-2699
▁k	-2700
エレ	-2701
でなく	-2702
▁日本では	-2703
べく	-2704
イエ	-2705
に乗	-2706
とも呼ば	-2707
おか	-2708
を起こ	-2709
原則	-2710
指揮	-2711
首相	-2712
みると	-2713
▁カ	-2714
ot	-2715
仕事	-2716
スーパー	-2717
まわ	-2718
仕方	-2719
がなく	-2720
ことである	-2721
気に	-2722
彼女の	-2723
▁オ	-2724
キング	-2725
彼が	-2726
CP	-2727
▁8	-2728
てた	-2729
へ出	-2730
ゴル	-2731
ですね	-2732
を見ると	-2733
くなった	-2734
失敗	-2735
哲学	-2736
海岸	-2737
権利	-2738
ガス	-2739
映像	-2740
記号	-2741
そうだ	-2742
行われる	-2743
ベン	-2744
ファイル	-2745
▁西	-2746
複雑	-2747
and	-2748
ッタ	-2749
抵抗	-2750
▁+	-2751
トー	-2752
候補	-2753
▁そこで	-2754
植物	-2755
急に	-2756
▁U	-2757
続く	-2758
ラル	-2759
当する	-2760
持って	-2761
フォー	-2762
そういう	-2763
らし	-2764
できなかった	-2765
星の	-2766
五十	-2767
置いて	-2768
みの	-2769
、6	-2770
デオ	-2771
移籍	-2772
初期の	-2773
らを	-2774
逆に	-2775
/\	-2776
青年	-2777
となっていた	-2778
先に	-2779
面積	-2780
這入	-2781
コース	-2782
の顔	-2783
方は	-2784
合成	-2785
さを	-2786
立って	-2787
万人	-2788
知られる	-2789
の意	-2790
名が	-2791
、(	-2792
分子	-2793
貴族	-2794
半分	-2795
えられる	-2796
のですが	-2797
頭の	-2798
ええ	-2799
書いて	-2800
次郎	-2801
不足	-2802
化を	-2803
臨時	-2804
エジプト	-2805
衛門	-2806
んだから	-2807
▁一方で	-2808
に大	-2809
県の	-2810
程度の	-2811
半島	-2812
確保	-2813
クライ	-2814
区分	-2815
統治	-2816
em	-2817
すこ	-2818
イベ	-2819
所有	-2820
つけて	-2821
供給	-2822
なんか	-2823
を送	-2824
を結ぶ	-2825
それでも	-2826
道の	-2827
陸軍	-2828
深く	-2829
ラの	-2830
ものと	-2831
駅である	-2832
年まで	-2833
ニコ	-2834
します	-2835
カップ	-2836
古く	-2837
39	-2838
地で	-2839
を通じて	-2840
企画	-2841
入口	-2842
知られている	-2843
台湾	-2844
三四	-2845
やつ	-2846
歳の	-2847
為に	-2848
ましたが	-2849
の方へ	-2850
を追	-2851
会の	-2852
ニュ	-2853
っては	-2854
にかく	-2855
一方で	-2856
と考えられている	-2857
対策	-2858
があるが	-2859
率は	-2860
所へ	-2861
背景	-2862
いながら	-2863
だけでなく	-2864
▁K	-2865
想像	-2866
保存	-2867
性格	-2868
リース	-2869
行する	-2870
何の	-2871
二三	-2872
を抱	-2873
平和	-2874
多かった	-2875
という意味	-2876
出された	-2877
がな	-2878
主人	-2879
りは	-2880
知識	-2881
▁このような	-2882
水の	-2883
ユダ	-2884
事も	-2885
御座	-2886
町の	-2887
ギャ	-2888
を行っている	-2889
聞いた	-2890
材料	-2891
心理	-2892
阪神	-2893
49	-2894
面相	-2895
の中の	-2896
するための	-2897
RA	-2898
カラ	-2899
屋根	-2900
パス	-2901
すら	-2902
てる	-2903
改革	-2904
位を	-2905
たった	-2906
例の	-2907
地震	-2908
イオン	-2909
完全に	-2910
プン	-2911
と思って	-2912
規模な	-2913
と同様に	-2914
以後	-2915
固定	-2916
、10	-2917
ミング	-2918
EC	-2919
士の	-2920
びに	-2921
投げ	-2922
継続	-2923
デー	-2924
以て	-2925
暗い	-2926
仕様	-2927
韓国	-2928
が登場	-2929
......。	-2930
長く	-2931
ペル	-2932
サッカー	-2933
ter	-2934
)(	-2935
提案	-2936
ルート	-2937
ビン	-2938
歩いて	-2939
運賃	-2940
かん	-2941
停止	-2942
同盟	-2943
思う	-2944
改良	-2945
数学	-2946
とお	-2947
ドライ	-2948
ボール	-2949
にしても	-2950
ケース	-2951
家族	-2952
43	-2953
を重	-2954
作の	-2955
気候	-2956
スリ	-2957
よし	-2958
億円	-2959
赤い	-2960
頭を	-2961
▁で	-2962
住宅	-2963
によっては	-2964
頭に	-2965
チャー	-2966
プロセ	-2967
オリンピック	-2968
度に	-2969
列車の	-2970
は以下の	-2971
かなり	-2972
元年	-2973
欧州	-2974
とても	-2975
定め	-2976
山陽	-2977
ニング	-2978
キャン	-2979
新宿	-2980
ドラマ	-2981
さまざまな	-2982
々は	-2983
中華	-2984
改造	-2985
恐ろしい	-2986
を感じ	-2987
日本では	-2988
規則	-2989
タイム	-2990
水素	-2991
証拠	-2992
これに	-2993
語版	-2994
であるため	-2995
に戻	-2996
くれる	-2997
法を	-2998
岡山	-2999
ませんでした	-3000
姿を	-3001
BS	-3002
の内	-3003
従来の	-3004
らかに	-3005
レーション	-3006
具体	-3007
通過	-3008
もっと	-3009
、7	-3010
たしか	-3011
に関しては	-3012
ぐる	-3013
世界の	-3014
の子	-3015
協力	-3016
義務	-3017
加盟	-3018
を表す	-3019
先生は	-3020
割り	-3021
周囲	-3022
の二	-3023
場合もある	-3024
司令	-3025
イメージ	-3026
現在は	-3027
実際に	-3028
死亡	-3029
交渉	-3030
ところで	-3031
だね	-3032
道を	-3033
なので	-3034
を用いた	-3035
方を	-3036
分け	-3037
施行	-3038
過程	-3039
れぬ	-3040
風の	-3041
FA	-3042
工事	-3043
時代には	-3044
ピン	-3045
低下	-3046
を目指	-3047
突き	-3048
到着	-3049
知らない	-3050
が起こ	-3051
作品の	-3052
まん	-3053
ッグ	-3054
ランダ	-3055
自分が	-3056
したがって	-3057
待ち	-3058
燃料	-3059
▁長	-3060
系列	-3061
東西	-3062
多数の	-3063
インタ	-3064
なに	-3065
まれて	-3066
当時は	-3067
上げて	-3068
42	-3069
法は	-3070
ルス	-3071
化し	-3072
つけた	-3073
オブ	-3074
統計	-3075
あんな	-3076
えていた	-3077
もち	-3078
能力	-3079
を読	-3080
量が	-3081
を引	-3082
ゼン	-3083
の中から	-3084
影響を与	-3085
ディング	-3086
ウェー	-3087
とうとう	-3088
っぽ	-3089
グリ	-3090
多くは	-3091
ネス	-3092
兵衛	-3093
奈良	-3094
西武	-3095
クリー	-3096
用意	-3097
聞き	-3098
いふ	-3099
ッセ	-3100
出演	-3101
が残	-3102
鎌倉	-3103
こんで	-3104
ag	-3105
心に	-3106
をう	-3107
一人の	-3108
人気	-3109
けば	-3110
体に	-3111
規制	-3112
米国	-3113
以前の	-3114
bol	-3115
、195	-3116
についても	-3117
場で	-3118
特定の	-3119
今の	-3120
なさい	-3121
ベト	-3122
間は	-3123
ロンド	-3124
▁という	-3125
オレ	-3126
南部	-3127
あなたは	-3128
理想	-3129
議院	-3130
トンネル	-3131
ましょう	-3132
彼等	-3133
資料	-3134
変換	-3135
流行	-3136
それぞれの	-3137
初代	-3138
国立	-3139
その時	-3140
一般的	-3141
プロジェクト	-3142
扱う	-3143
約束	-3144
ここに	-3145
をの	-3146
▁天	-3147
おい	-3148
コマ	-3149
を立て	-3150
ねば	-3151
クトル	-3152
を迎	-3153
単純	-3154
法が	-3155
まち	-3156
刊行	-3157
植民	-3158
挙げられる	-3159
に似	-3160
福岡	-3161
▁だが	-3162
のみならず	-3163
れません	-3164
るところ	-3165
場合には	-3166
CA	-3167
往復	-3168
明る	-3169
に就任	-3170
南北	-3171
土地	-3172
替え	-3173
中には	-3174
とされ	-3175
を見る	-3176
を残	-3177
に分類	-3178
こともあり	-3179
へは	-3180
さは	-3181
死んだ	-3182
如何	-3183
見られる	-3184
▁各	-3185
さあ	-3186
ろん	-3187
オル	-3188
山口	-3189
防衛	-3190
一番	-3191
性は	-3192
が不	-3193
明確	-3194
云ふ	-3195
復活	-3196
仙台	-3197
度も	-3198
pp	-3199
きっ	-3200
たが	-3201
呼称	-3202
セント	-3203
SF	-3204
テク	-3205
神話	-3206
くて	-3207
吹き	-3208
家が	-3209
継承	-3210
面を	-3211
に由来	-3212
死ぬ	-3213
自殺	-3214
こちら	-3215
ものがある	-3216
家康	-3217
医学	-3218
複数	-3219
部門	-3220
イヤー	-3221
、8	-3222
夜の	-3223
これも	-3224
くらい	-3225
41	-3226
ユダヤ	-3227
のだろう	-3228
ヴォ	-3229
うしろ	-3230
の下に	-3231
鉄道の	-3232
んだよ	-3233
ニウム	-3234
ミュー	-3235
次いで	-3236
組合	-3237
いくつかの	-3238
貿易	-3239
ミサ	-3240
医療	-3241
売り	-3242
そこへ	-3243
ロード	-3244
の御	-3245
地帯	-3246
ポケット	-3247
基礎	-3248
教師	-3249
唯一の	-3250
カナ	-3251
独自の	-3252
駅間の	-3253
ことにより	-3254
(「	-3255
ブレ	-3256
古典	-3257
足を	-3258
初め	-3259
教授	-3260
書いた	-3261
示す	-3262
わかり	-3263
ケーション	-3264
分析	-3265
語で	-3266
ネー	-3267
小田	-3268
延長	-3269
▁日本の	-3270
▁,	-3271
おらず	-3272
ものであった	-3273
扱い	-3274
マイクロ	-3275
株式会社	-3276
当然	-3277
レオ	-3278
積極	-3279
製の	-3280
▁17	-3281
となっており	-3282
ph	-3283
沖縄	-3284
▁こうした	-3285
.1	-3286
ヨーク	-3287
が現	-3288
信じ	-3289
農業	-3290
の日	-3291
空気	-3292
車は	-3293
SA	-3294
健康	-3295
気味	-3296
ノン	-3297
警官	-3298
を持っている	-3299
を除く	-3300
メイン	-3301
身の	-3302
iv	-3303
ドン	-3304
を使う	-3305
海外	-3306
車が	-3307
伊勢	-3308
トの	-3309
まっている	-3310
されているが	-3311
まったく	-3312
だして	-3313
いろいろ	-3314
中は	-3315
の研究	-3316
と云って	-3317
一郎	-3318
後述	-3319
と同時に	-3320
を保	-3321
所は	-3322
作成	-3323
執筆	-3324
人である	-3325
を開始した	-3326
張り	-3327
の	-3328
、	-3329
に	-3330
た	-3331
▁	-3332
る	-3333
。	-3334
い	-3335
は	-3336
と	-3337
て	-3338
し	-3339
を	-3340
で	-3341
が	-3342
な	-3343
れ	-3344
か	-3345
っ	-3346
も	-3347
ら	-3348
ー	-3349
あ	-3350
う	-3351
り	-3352
こ	-3353
す	-3354
ン	-3355
ま	-3356
さ	-3357
1	-3358
く	-3359
そ	-3360
よ	-3361
年	-3362
ス	-3363
0	-3364
(	-3365
)	-3366
「	-3367
」	-3368
ル	-3369
つ	-3370
だ	-3371
2	-3372
ん	-3373
き	-3374
ト	-3375
イ	-3376
け	-3377
ア	-3378
リ	-3379
・	-3380
や	-3381
人	-3382
め	-3383
.	-3384
ど	-3385
ラ	-3386
お	-3387
一	-3388
日	-3389
え	-3390
ッ	-3391
大	-3392
9	-3393
わ	-3394
ク	-3395
行	-3396
中	-3397
本	-3398
国	-3399
ド	-3400
タ	-3401
シ	-3402
3	-3403
時	-3404
ち	-3405
上	-3406
ロ	-3407
ば	-3408
せ	-3409
用	-3410
出	-3411
カ	-3412
間	-3413
フ	-3414
的	-3415
分	-3416
5	-3417
へ	-3418
8	-3419
月	-3420
見	-3421
e	-3422
4	-3423
事	-3424
み	-3425
レ	-3426
ム	-3427
合	-3428
生	-3429
a	-3430
地	-3431
ジ	-3432
方	-3433
マ	-3434
後	-3435
子	-3436
6	-3437
じ	-3438
発	-3439
自	-3440
テ	-3441
7	-3442
学	-3443
コ	-3444
i	-3445
線	-3446
プ	-3447
代	-3448
ろ	-3449
車	-3450
者	-3451
作	-3452
部	-3453
場	-3454
定	-3455
同	-3456
駅	-3457
下	-3458
ず	-3459
オ	-3460
ウ	-3461
前	-3462
メ	-3463
バ	-3464
通	-3465
グ	-3466
物	-3467
手	-3468
デ	-3469
ィ	-3470
成	-3471
t	-3472
o	-3473
会	-3474
n	-3475
語	-3476
来	-3477
化	-3478
入	-3479
気	-3480
動	-3481
r	-3482
立	-3483
体	-3484
以	-3485
チ	-3486
名	-3487
数	-3488
サ	-3489
家	-3490
『	-3491
』	-3492
ニ	-3493
多	-3494
道	-3495
内	-3496
対	-3497
s	-3498
エ	-3499
度	-3500
高	-3501
戦	-3502
キ	-3503
現	-3504
言	-3505
当	-3506
主	-3507
小	-3508
開	-3509
ブ	-3510
長	-3511
東	-3512
-	-3513
び	-3514
世	-3515
l	-3516
二	-3517
パ	-3518
ュ	-3519
法	-3520
ナ	-3521
ほ	-3522
機	-3523
性	-3524
実	-3525
三	-3526
新	-3527
山	-3528
在	-3529
S	-3530
理	-3531
文	-3532
ャ	-3533
ビ	-3534
明	-3535
業	-3536
関	-3537
力	-3538
表	-3539
全	-3540
A	-3541
思	-3542
目	-3543
C	-3544
所	-3545
ね	-3546
最	-3547
市	-3548
m	-3549
私	-3550
げ	-3551
ダ	-3552
電	-3553
ハ	-3554
記	-3555
外	-3556
使	-3557
設	-3558
面	-3559
書	-3560
々	-3561
ミ	-3562
知	-3563
女	-3564
田	-3565
べ	-3566
持	-3567
第	-3568
何	-3569
ひ	-3570
彼	-3571
心	-3572
運	-3573
意	-3574
ズ	-3575
平	-3576
ェ	-3577
ふ	-3578
様	-3579
社	-3580
要	-3581
教	-3582
モ	-3583
特	-3584
I	-3585
形	-3586
初	-3587
セ	-3588
む	-3589
連	-3590
期	-3591
置	-3592
式	-3593
十	-3594
変	-3595
不	-3596
ネ	-3597
政	-3598
神	-3599
画	-3600
ベ	-3601
位	-3602
ツ	-3603
水	-3604
能	-3605
c	-3606
原	-3607
金	-3608
d	-3609
ガ	-3610
海	-3611
相	-3612
ョ	-3613
ソ	-3614
無	-3615
品	-3616
鉄	-3617
和	-3618
取	-3619
川	-3620
軍	-3621
正	-3622
少	-3623
P	-3624
向	-3625
制	-3626
結	-3627
近	-3628
民	-3629
西	-3630
M	-3631
T	-3632
次	-3633
云	-3634
野	-3635
口	-3636
有	-3637
京	-3638
呼	-3639
天	-3640
北	-3641
空	-3642
ポ	-3643
R	-3644
加	-3645
公	-3646
利	-3647
ノ	-3648
D	-3649
ピ	-3650
ゃ	-3651
音	-3652
考	-3653
先	-3654
信	-3655
話	-3656
点	-3657
p	-3658
島	-3659
受	-3660
義	-3661
元	-3662
両	-3663
存	-3664
ゐ	-3665
経	-3666
u	-3667
身	-3668
ぶ	-3669
流	-3670
界	-3671
重	-3672
ケ	-3673
路	-3674
御	-3675
今	-3676
際	-3677
直	-3678
ギ	-3679
都	-3680
指	-3681
説	-3682
続	-3683
別	-3684
O	-3685
列	-3686
区	-3687
始	-3688
付	-3689
ょ	-3690
回	-3691
転	-3692
治	-3693
ご	-3694
h	-3695
解	-3696
ボ	-3697
ワ	-3698
y	-3699
屋	-3700
可	-3701
ホ	-3702
計	-3703
E	-3704
N	-3705
等	-3706
論	-3707
号	-3708
得	-3709
ヤ	-3710
種	-3711
系	-3712
ぐ	-3713
共	-3714
他	-3715
産	-3716
急	-3717
交	-3718
進	-3719
,	-3720
ァ	-3721
君	-3722
ぬ	-3723
議	-3724
活	-3725
―	-3726
B	-3727
版	-3728
然	-3729
改	-3730
英	-3731
権	-3732
南	-3733
番	-3734
味	-3735
約	-3736
古	-3737
ペ	-3738
基	-3739
切	-3740
王	-3741
送	-3742
色	-3743
員	-3744
乗	-3745
常	-3746
構	-3747
起	-3748
木	-3749
造	-3750
死	-3751
集	-3752
組	-3753
問	-3754
ぎ	-3755
引	-3756
着	-3757
例	-3758
F	-3759
字	-3760
半	-3761
広	-3762
側	-3763
保	-3764
決	-3765
県	-3766
強	-3767
売	-3768
男	-3769
安	-3770
降	-3771
ゴ	-3772
統	-3773
光	-3774
状	-3775
白	-3776
量	-3777
放	-3778
素	-3779
聞	-3780
食	-3781
四	-3782
類	-3783
朝	-3784
楽	-3785
由	-3786
ゲ	-3787
郎	-3788
選	-3789
感	-3790
g	-3791
台	-3792
果	-3793
称	-3794
伝	-3795
町	-3796
域	-3797
ヴ	-3798
ざ	-3799
終	-3800
万	-3801
頭	-3802
:	-3803
工	-3804
各	-3805
石	-3806
調	-3807
速	-3808
馬	-3809
型	-3810
太	-3811
士	-3812
質	-3813
必	-3814
配	-3815
支	-3816
術	-3817
命	-3818
L	-3819
示	-3820
反	-3821
紀	-3822
応	-3823
\	-3824
格	-3825
顔	-3826
五	-3827
土	-3828
{	-3829
務	-3830
}	-3831
葉	-3832
勝	-3833
J	-3834
題	-3835
G	-3836
風	-3837
真	-3838
過	-3839
参	-3840
料	-3841
戸	-3842
止	-3843
づ	-3844
限	-3845
込	-3846
製	-3847
規	-3848
僕	-3849
足	-3850
移	-3851
異	-3852
k	-3853
建	-3854
ザ	-3855
単	-3856
団	-3857
ヒ	-3858
声	-3859
府	-3860
程	-3861
認	-3862
ぞ	-3863
ぼ	-3864
情	-3865
条	-3866
H	-3867
含	-3868
編	-3869
b	-3870
影	-3871
村	-3872
達	-3873
態	-3874
落	-3875
門	-3876
備	-3877
武	-3878
想	-3879
判	-3880
器	-3881
派	-3882
領	-3883
接	-3884
報	-3885
仕	-3886
再	-3887
任	-3888
族	-3889
/	-3890
確	-3891
争	-3892
総	-3893
皇	-3894
離	-3895
校	-3896
違	-3897
観	-3898
州	-3899
独	-3900
述	-3901
残	-3902
装	-3903
美	-3904
比	-3905
悪	-3906
演	-3907
与	-3908
般	-3909
映	-3910
件	-3911
好	-3912
ォ	-3913
営	-3914
ゆ	-3915
V	-3916
非	-3917
係	-3918
帰	-3919
f	-3920
ユ	-3921
親	-3922
増	-3923
母	-3924
父	-3925
氏	-3926
細	-3927
撃	-3928
曲	-3929
兵	-3930
研	-3931
U	-3932
助	-3933
録	-3934
住	-3935
収	-3936
夫	-3937
官	-3938
夜	-3939
導	-3940
換	-3941
青	-3942
登	-3943
張	-3944
円	-3945
返	-3946
技	-3947
究	-3948
供	-3949
及	-3950
載	-3951
隊	-3952
宮	-3953
局	-3954
念	-3955
火	-3956
役	-3957
客	-3958
ヘ	-3959
ヨ	-3960
施	-3961
象	-3962
容	-3963
米	-3964
井	-3965
属	-3966
予	-3967
周	-3968
走	-3969
響	-3970
史	-3971
球	-3972
優	-3973
黒	-3974
準	-3975
良	-3976
断	-3977
W	-3978
星	-3979
読	-3980
科	-3981
院	-3982
低	-3983
管	-3984
失	-3985
陸	-3986
昭	-3987
歩	-3988
居	-3989
殺	-3990
笑	-3991
更	-3992
千	-3993
洋	-3994
頃	-3995
愛	-3996
飛	-3997
首	-3998
価	-3999
消	-4000
眼	-4001
勢	-4002
打	-4003
根	-4004
帝	-4005
割	-4006
室	-4007
=	-4008
提	-4009
段	-4010
店	-4011
八	-4012
賞	-4013
江	-4014
座	-4015
諸	-4016
病	-4017
極	-4018
松	-4019
赤	-4020
波	-4021
挙	-4022
横	-4023
害	-4024
宗	-4025
党	-4026
資	-4027
図	-4028
完	-4029
競	-4030
橋	-4031
%	-4032
吉	-4033
難	-4034
阪	-4035
末	-4036
師	-4037
案	-4038
算	-4039
K	-4040
退	-4041
城	-4042
済	-4043
視	-4044
六	-4045
率	-4046
復	-4047
商	-4048
処	-4049
階	-4050
衛	-4051
令	-4052
館	-4053
去	-4054
積	-4055
試	-4056
歌	-4057
識	-4058
帯	-4059
展	-4060
満	-4061
除	-4062
追	-4063
花	-4064
x	-4065
深	-4066
紙	-4067
林	-4068
岡	-4069
従	-4070
早	-4071
圧	-4072
差	-4073
v	-4074
育	-4075
投	-4076
普	-4077
津	-4078
標	-4079
験	-4080
継	-4081
河	-4082
寺	-4083
像	-4084
攻	-4085
銀	-4086
又	-4087
旧	-4088
船	-4089
突	-4090
?	-4091
採	-4092
評	-4093
値	-4094
個	-4095
告	-4096
複	-4097
若	-4098
減	-4099
求	-4100
停	-4101
左	-4102
源	-4103
境	-4104
査	-4105
将	-4106
警	-4107
酸	-4108
余	-4109
渡	-4110
照	-4111
角	-4112
温	-4113
園	-4114
右	-4115
藤	-4116
熱	-4117
待	-4118
谷	-4119
歳	-4120
証	-4121
廃	-4122
遠	-4123
福	-4124
X	-4125
越	-4126
模	-4127
百	-4128
覚	-4129
端	-4130
整	-4131
防	-4132
探	-4133
博	-4134
ゼ	-4135
為	-4136
密	-4137
省	-4138
精	-4139
破	-4140
苦	-4141
職	-4142
協	-4143
旅	-4144
歴	-4145
草	-4146
ぜ	-4147
寄	-4148
推	-4149
辺	-4150
著	-4151
写	-4152
訳	-4153
陽	-4154
検	-4155
九	-4156
蔵	-4157
崎	-4158
効	-4159
医	-4160
絶	-4161
並	-4162
専	-4163
w	-4164
港	-4165
雑	-4166
環	-4167
芸	-4168
姿	-4169
遺	-4170
振	-4171
守	-4172
航	-4173
!	-4174
策	-4175
七	-4176
留	-4177
催	-4178
我	-4179
衆	-4180
護	-4181
輸	-4182
負	-4183
節	-4184
申	-4185
智	-4186
席	-4187
描	-4188
宿	-4189
暗	-4190
至	-4191
兄	-4192
伊	-4193
未	-4194
敗	-4195
恐	-4196
察	-4197
血	-4198
候	-4199
宇	-4200
老	-4201
働	-4202
具	-4203
注	-4204
植	-4205
ぱ	-4206
艦	-4207
因	-4208
沢	-4209
測	-4210
央	-4211
許	-4212
似	-4213
材	-4214
快	-4215
延	-4216
望	-4217
薬	-4218
短	-4219
答	-4220
適	-4221
途	-4222
幕	-4223
囲	-4224
仏	-4225
酒	-4226
友	-4227
徳	-4228
乱	-4229
易	-4230
毎	-4231
巻	-4232
創	-4233
略	-4234
誰	-4235
清	-4236
誌	-4237
興	-4238
給	-4239
担	-4240
軽	-4241
扱	-4242
佐	-4243
如	-4244
占	-4245
拠	-4246
久	-4247
費	-4248
射	-4249
了	-4250
修	-4251
怪	-4252
互	-4253
服	-4254
農	-4255
犯	-4256
則	-4257
補	-4258
伴	-4259
徴	-4260
故	-4261
春	-4262
富	-4263
聖	-4264
固	-4265
岸	-4266
頼	-4267
介	-4268
層	-4269
織	-4270
舞	-4271
超	-4272
劇	-4273
魔	-4274
街	-4275
級	-4276
監	-4277
布	-4278
漫	-4279
企	-4280
"	-4281
貨	-4282
背	-4283
弾	-4284
ヌ	-4285
臣	-4286
底	-4287
鳥	-4288
典	-4289
冷	-4290
盛	-4291
便	-4292
肉	-4293
息	-4294
裁	-4295
翌	-4296
掛	-4297
藩	-4298
順	-4299
板	-4300
志	-4301
景	-4302
遊	-4303
之	-4304
浜	-4305
茶	-4306
労	-4307
奥	-4308
承	-4309
拡	-4310
築	-4311
岩	-4312
罪	-4313
抗	-4314
就	-4315
筆	-4316
逆	-4317
司	-4318
談	-4319
併	-4320
暦	-4321
券	-4322
静	-4323
弟	-4324
散	-4325
委	-4326
抜	-4327
仮	-4328
尾	-4329
折	-4330
幹	-4331
販	-4332
刑	-4333
貴	-4334
習	-4335
ゝ	-4336
逃	-4337
庭	-4338
闘	-4339
群	-4340
障	-4341
焼	-4342
押	-4343
被	-4344
革	-4345
刊	-4346
札	-4347
盟	-4348
窓	-4349
玉	-4350
片	-4351
養	-4352
森	-4353
滅	-4354
跡	-4355
丸	-4356
買	-4357
永	-4358
秀	-4359
亡	-4360
激	-4361
籍	-4362
混	-4363
額	-4364
督	-4365
印	-4366
敵	-4367
漢	-4368
章	-4369
疑	-4370
刻	-4371
休	-4372
黄	-4373
敷	-4374
寝	-4375
項	-4376
此	-4377
華	-4378
甲	-4379
宅	-4380
郡	-4381
池	-4382
壊	-4383
秋	-4384
倒	-4385
裏	-4386
夢	-4387
爆	-4388
妻	-4389
否	-4390
功	-4391
純	-4392
妙	-4393
致	-4394
娘	-4395
替	-4396
+	-4397
堂	-4398
核	-4399
財	-4400
徒	-4401
飲	-4402
豊	-4403
羽	-4404
困	-4405
詩	-4406
較	-4407
善	-4408
児	-4409
奏	-4410
戻	-4411
倉	-4412
軌	-4413
概	-4414
律	-4415
鹿	-4416
宙	-4417
婚	-4418
雨	-4419
鮮	-4420
礼	-4421
油	-4422
微	-4423
幅	-4424
絵	-4425
弱	-4426
批	-4427
均	-4428
沿	-4429
訪	-4430
輪	-4431
偵	-4432
憲	-4433
億	-4434
奇	-4435
傾	-4436
依	-4437
其	-4438
宝	-4439
毛	-4440
距	-4441
援	-4442
隠	-4443
夏	-4444
z	-4445
枚	-4446
盤	-4447
宣	-4448
縁	-4449
脱	-4450
骨	-4451
禁	-4452
雄	-4453
康	-4454
※	-4455
庁	-4456
舎	-4457
執	-4458
危	-4459
縮	-4460
浮	-4461
房	-4462
奴	-4463
ゥ	-4464
幸	-4465
雪	-4466
泉	-4467
況	-4468
険	-4469
厳	-4470
魚	-4471
獲	-4472
塩	-4473
湾	-4474
療	-4475
雲	-4476
掲	-4477
燃	-4478
避	-4479
捕	-4480
砲	-4481
往	-4482
ゾ	-4483
祖	-4484
婦	-4485
Y	-4486
健	-4487
欧	-4488
丁	-4489
搭	-4490
賀	-4491
株	-4492
閉	-4493
庫	-4494
喜	-4495
既	-4496
圏	-4497
里	-4498
払	-4499
震	-4500
範	-4501
唯	-4502
薄	-4503
隣	-4504
殿	-4505
ぢ	-4506
閣	-4507
毒	-4508
秘	-4509
維	-4510
願	-4511
束	-4512
磁	-4513
悲	-4514
己	-4515
香	-4516
講	-4517
驚	-4518
遣	-4519
坂	-4520
弁	-4521
腹	-4522
軒	-4523
倍	-4524
辞	-4525
ゅ	-4526
到	-4527
操	-4528
栄	-4529
濃	-4530
傷	-4531
踏	-4532
税	-4533
吸	-4534
胞	-4535
鳴	-4536
釈	-4537
簡	-4538
仰	-4539
巨	-4540
詞	-4541
砂	-4542
邦	-4543
儀	-4544
伸	-4545
症	-4546
臨	-4547
週	-4548
床	-4549
鏡	-4550
壁	-4551
忘	-4552
_	-4553
染	-4554
鼻	-4555
液	-4556
竹	-4557
皮	-4558
抱	-4559
夕	-4560
祭	-4561
勤	-4562
樹	-4563
吹	-4564
忠	-4565
納	-4566
詳	-4567
塚	-4568
欠	-4569
恋	-4570
耳	-4571
陰	-4572
露	-4573
襲	-4574
繰	-4575
痛	-4576
敬	-4577
湖	-4578
迎	-4579
討	-4580
授	-4581
或	-4582
胸	-4583
荷	-4584
附	-4585
郷	-4586
ヶ	-4587
午	-4588
晩	-4589
聴	-4590
益	-4591
霊	-4592
幾	-4593
曜	-4594
請	-4595
箱	-4596
奈	-4597
崩	-4598
哲	-4599
誤	-4600
即	-4601
練	-4602
仲	-4603
昔	-4604
触	-4605
廻	-4606
昇	-4607
浦	-4608
穴	-4609
撮	-4610
阿	-4611
惑	-4612
契	-4613
瀬	-4614
携	-4615
災	-4616
筋	-4617
煙	-4618
炭	-4619
斎	-4620
泣	-4621
丈	-4622
遅	-4623
課	-4624
侵	-4625
絡	-4626
牛	-4627
矢	-4628
岐	-4629
那	-4630
充	-4631
覧	-4632
×	-4633
摩	-4634
損	-4635
却	-4636
揮	-4637
包	-4638
冬	-4639
玄	-4640
腕	-4641
唱	-4642
誘	-4643
免	-4644
借	-4645
卒	-4646
躍	-4647
犬	-4648
→	-4649
締	-4650
慣	-4651
融	-4652
虫	-4653
献	-4654
審	-4655
尊	-4656
針	-4657
巡	-4658
慮	-4659
摘	-4660
狂	-4661
仙	-4662
駆	-4663
皆	-4664
架	-4665
韓	-4666
威	-4667
寒	-4668
湯	-4669
浅	-4670
俗	-4671
責	-4672
副	-4673
怖	-4674
析	-4675
豆	-4676
句	-4677
暮	-4678
殊	-4679
訴	-4680
狭	-4681
梅	-4682
怒	-4683
脳	-4684
績	-4685
序	-4686
暴	-4687
ぽ	-4688
僧	-4689
黙	-4690
坊	-4691
兼	-4692
Q	-4693
排	-4694
衣	-4695
陣	-4696
季	-4697
脚	-4698
械	-4699
吾	-4700
銃	-4701
柄	-4702
於	-4703
奉	-4704
伏	-4705
憶	-4706
救	-4707
叫	-4708
抵	-4709
腰	-4710
筈	-4711
粒	-4712
溶	-4713
干	-4714
緒	-4715
握	-4716
択	-4717
嫌	-4718
孫	-4719
這	-4720
荒	-4721
伯	-4722
爵	-4723
沖	-4724
緑	-4725
眠	-4726
刺	-4727
縄	-4728
枝	-4729
銭	-4730
迷	-4731
寸	-4732
撤	-4733
髪	-4734
才	-4735
隔	-4736
'	-4737
乳	-4738
Z	-4739
拝	-4740
譲	-4741
眺	-4742
蒸	-4743
潜	-4744
厚	-4745
灯	-4746
衝	-4747
飯	-4748
芝	-4749
抑	-4750
頂	-4751
熊	-4752
双	-4753
繁	-4754
脈	-4755
沈	-4756
還	-4757
賃	-4758
稿	-4759
征	-4760
奪	-4761
慶	-4762
鉱	-4763
&	-4764
貫	-4765
麻	-4766
歯	-4767
j	-4768
姫	-4769
洗	-4770
須	-4771
唐	-4772
索	-4773
軸	-4774
詰	-4775
輩	-4776
誕	-4777
招	-4778
飾	-4779
網	-4780
銅	-4781
希	-4782
蘭	-4783
盗	-4784
鎖	-4785
〜	-4786
仁	-4787
昼	-4788
是	-4789
迫	-4790
妹	-4791
剣	-4792
姉	-4793
亜	-4794
削	-4795
患	-4796
齢	-4797
幼	-4798
袋	-4799
棋	-4800
童	-4801
ゞ	-4802
冠	-4803
透	-4804
裂	-4805
棒	-4806
懐	-4807
騒	-4808
晶	-4809
棄	-4810
秒	-4811
欲	-4812
墓	-4813
沼	-4814
傍	-4815
菌	-4816
丘	-4817
剤	-4818
酔	-4819
尋	-4820
紹	-4821
肩	-4822
渉	-4823
封	-4824
紅	-4825
票	-4826
刀	-4827
~	-4828
埋	-4829
没	-4830
q	-4831
寛	-4832
昨	-4833
俺	-4834
耐	-4835
晴	-4836
珍	-4837
勇	-4838
鬼	-4839
坐	-4840
呉	-4841
緩	-4842
洲	-4843
漁	-4844
培	-4845
遂	-4846
羅	-4847
懸	-4848
騎	-4849
随	-4850
]	-4851
丹	-4852
[	-4853
屈	-4854
雷	-4855
卓	-4856
駄	-4857
姓	-4858
恵	-4859
貧	-4860
婆	-4861
購	-4862
豪	-4863
桜	-4864
彦	-4865
旗	-4866
栽	-4867
柔	-4868
粉	-4869
滑	-4870
掘	-4871
牧	-4872
塗	-4873
燈	-4874
径	-4875
龍	-4876
柱	-4877
趣	-4878
氷	-4879
陥	-4880
汚	-4881
署	-4882
杉	-4883
塔	-4884
泊	-4885
竜	-4886
隅	-4887
廷	-4888
杯	-4889
看	-4890
貰	-4891
賊	-4892
叔	-4893
泥	-4894
脂	-4895
稲	-4896
訓	-4897
硬	-4898
符	-4899
縦	-4900
謀	-4901
鎌	-4902
○	-4903
麗	-4904
糖	-4905
邸	-4906
潮	-4907
寿	-4908
甚	-4909
賛	-4910
扉	-4911
摂	-4912
悟	-4913
尚	-4914
託	-4915
糸	-4916
滞	-4917
魂	-4918
葬	-4919
旨	-4920
°	-4921
虚	-4922
”	-4923
涙	-4924
添	-4925
捨	-4926
偽	-4927
浴	-4928
衰	-4929
翻	-4930
揚	-4931
瞬	-4932
翼	-4933
甘	-4934
尽	-4935
綱	-4936
旦	-4937
獣	-4938
偶	-4939
駒	-4940
尺	-4941
乾	-4942
緯	-4943
戒	-4944
捜	-4945
該	-4946
隆	-4947
抽	-4948
暫	-4949
枠	-4950
殖	-4951
鈴	-4952
鶴	-4953
舗	-4954
柳	-4955
忍	-4956
−	-4957
渋	-4958
畑	-4959
酵	-4960
殆	-4961
茂	-4962
弘	-4963
劣	-4964
刷	-4965
烈	-4966
嬢	-4967
貸	-4968
荘	-4969
郵	-4970
駐	-4971
箇	-4972
菜	-4973
紛	-4974
也	-4975
“	-4976
邪	-4977
拒	-4978
徐	-4979
肥	-4980
#	-4981
炎	-4982
届	-4983
頻	-4984
椅	-4985
覆	-4986
促	-4987
紫	-4988
礎	-4989
診	-4990
謝	-4991
憎	-4992
闇	-4993
顕	-4994
輝	-4995
來	-4996
括	-4997
努	-4998
帽	-4999
灰	-5000
畳	-5001
呂	-5002
勧	-5003
獄	-5004
郊	-5005
卵	-5006
帳	-5007
轄	-5008
汽	-5009
徹	-5010
慢	-5011
臓	-5012
暖	-5013
緊	-5014
廊	-5015
熟	-5016
潟	-5017
亭	-5018
弥	-5019
債	-5020
辛	-5021
薩	-5022
菊	-5023
鉛	-5024
腐	-5025
俳	-5026
祝	-5027
凡	-5028
淡	-5029
媒	-5030
膜	-5031
裕	-5032
冒	-5033
恩	-5034
岳	-5035
舟	-5036
需	-5037
幣	-5038
夷	-5039
僚	-5040
踊	-5041
弦	-5042
罰	-5043
貿	-5044
浄	-5045
垂	-5046
賢	-5047
噴	-5048
勿	-5049
堀	-5050
〉	-5051
〈	-5052
彩	-5053
洞	-5054
狩	-5055
笠	-5056
麦	-5057
飼	-5058
斜	-5059
疲	-5060
虎	-5061
紋	-5062
悩	-5063
繋	-5064
亀	-5065
猫	-5066
遇	-5067
幻	-5068
鍵	-5069
^	-5070
爺	-5071
貞	-5072
鋼	-5073
預	-5074
誉	-5075
顧	-5076
涯	-5077
乏	-5078
冊	-5079
誇	-5080
掌	-5081
誠	-5082
侯	-5083
巧	-5084
孔	-5085
垣	-5086
吐	-5087
孝	-5088
鑑	-5089
籠	-5090
貢	-5091
骸	-5092
恥	-5093
ぴ	-5094
澄	-5095
浪	-5096
償	-5097
臭	-5098
遷	-5099
ぷ	-5100
斯	-5101
机	-5102
柏	-5103
逢	-5104
募	-5105
幽	-5106
鎮	-5107
偉	-5108
泳	-5109
孤	-5110
贈	-5111
珠	-5112
粋	-5113
恒	-5114
偏	-5115
戯	-5116
李	-5117
尻	-5118
宜	-5119
呑	-5120
嘘	-5121
頬	-5122
妾	-5123
覗	-5124
捉	-5125
凝	-5126
逸	-5127
匹	-5128
鋭	-5129
猛	-5130
迄	-5131
旋	-5132
俊	-5133
ā	-5134
召	-5135
蓮	-5136
硫	-5137
蛇	-5138
幌	-5139
拘	-5140
寧	-5141
盾	-5142
蒲	-5143
埼	-5144
崇	-5145
蓄	-5146
舌	-5147
雇	-5148
拶	-5149
挨	-5150
膝	-5151
拍	-5152
譜	-5153
沙	-5154
揺	-5155
塁	-5156
癖	-5157
愚	-5158
狙	-5159
秩	-5160
厭	-5161
喰	-5162
酷	-5163
枕	-5164
浸	-5165
挟	-5166
旬	-5167
磨	-5168
嘉	-5169
傘	-5170
|	-5171
桁	-5172
α	-5173
謂	-5174
叙	-5175
挿	-5176
哀	-5177
揃	-5178
貯	-5179
疾	-5180
篇	-5181
嫁	-5182
措	-5183
稼	-5184
叩	-5185
湿	-5186
敏	-5187
撲	-5188
澤	-5189
膨	-5190
肝	-5191
勉	-5192
陵	-5193
祈	-5194
菓	-5195
睡	-5196
閏	-5197
斉	-5198
畜	-5199
筒	-5200
靴	-5201
堪	-5202
拳	-5203
栗	-5204
殻	-5205
釣	-5206
脅	-5207
堅	-5208
桃	-5209
髄	-5210
駈	-5211
勘	-5212
亦	-5213
鉢	-5214
蘇	-5215
庄	-5216
隷	-5217
雀	-5218
朱	-5219
窮	-5220
侍	-5221
函	-5222
塞	-5223
唇	-5224
穂	-5225
漠	-5226
遍	-5227
汗	-5228
只	-5229
暑	-5230
畿	-5231
挑	-5232
稽	-5233
艇	-5234
卑	-5235
妖	-5236
拓	-5237
猿	-5238
瓶	-5239
彫	-5240
拾	-5241
翁	-5242
矛	-5243
窟	-5244
磐	-5245
氣	-5246
擁	-5247
禄	-5248
耕	-5249
惜	-5250
銘	-5251
隙	-5252
煮	-5253
控	-5254
愉	-5255
逐	-5256
胆	-5257
昌	-5258
芽	-5259
瓦	-5260
奨	-5261
綿	-5262
噂	-5263
据	-5264
裸	-5265
壇	-5266
奮	-5267
盆	-5268
呪	-5269
乙	-5270
鷹	-5271
焦	-5272
稀	-5273
紳	-5274
禅	-5275
嵐	-5276
蓋	-5277
桂	-5278
后	-5279
慾	-5280
軟	-5281
蔑	-5282
;	-5283
尤	-5284
梁	-5285
駿	-5286
芳	-5287
嬉	-5288
陳	-5289
覇	-5290
励	-5291
逮	-5292
棚	-5293
宋	-5294
巣	-5295
汁	-5296
雅	-5297
辰	-5298
蒼	-5299
惨	-5300
滝	-5301
羊	-5302
腸	-5303
ヲ	-5304
峰	-5305
乞	-5306
宰	-5307
筑	-5308
鼓	-5309
兎	-5310
剰	-5311
庵	-5312
峡	-5313
蔭	-5314
燥	-5315
祥	-5316
但	-5317
阜	-5318
勃	-5319
掃	-5320
ぺ	-5321
弓	-5322
貝	-5323
幡	-5324
咲	-5325
匠	-5326
拭	-5327
菱	-5328
呆	-5329
μ	-5330
脇	-5331
暇	-5332
克	-5333
播	-5334
炉	-5335
學	-5336
豚	-5337
溝	-5338
阻	-5339
猟	-5340
錯	-5341
讃	-5342
魅	-5343
枯	-5344
笛	-5345
尉	-5346
履	-5347
粘	-5348
縛	-5349
呈	-5350
凍	-5351
斬	-5352
兆	-5353
潔	-5354
衡	-5355
隻	-5356
卿	-5357
慎	-5358
壮	-5359
疎	-5360
訂	-5361
勅	-5362
傑	-5363
霧	-5364
倭	-5365
歓	-5366
烏	-5367
忽	-5368
扇	-5369
硝	-5370
謎	-5371
溜	-5372
謡	-5373
僅	-5374
宛	-5375
寂	-5376
肪	-5377
喫	-5378
勲	-5379
泰	-5380
慰	-5381
醜	-5382
梨	-5383
慌	-5384
曹	-5385
胡	-5386
零	-5387
悔	-5388
絞	-5389
啓	-5390
剛	-5391
墳	-5392
潤	-5393
凄	-5394
訊	-5395
袖	-5396
貌	-5397
嘆	-5398
尼	-5399
遮	-5400
淋	-5401
恰	-5402
倫	-5403
遭	-5404
忙	-5405
憂	-5406
窒	-5407
訟	-5408
搬	-5409
冗	-5410
掻	-5411
碑	-5412
眉	-5413
犠	-5414
貼	-5415
飽	-5416
迦	-5417
喧	-5418
掴	-5419
峠	-5420
猪	-5421
穀	-5422
乃	-5423
牲	-5424
噛	-5425
睨	-5426
蒙	-5427
斗	-5428
諾	-5429
虐	-5430
跨	-5431
*	-5432
勾	-5433
叱	-5434
敢	-5435
樣	-5436
蹴	-5437
葛	-5438
釜	-5439
é	-5440
胃	-5441
碁	-5442
閑	-5443
鶏	-5444
刃	-5445
妨	-5446
穏	-5447
而	-5448
誓	-5449
肯	-5450
賭	-5451
塀	-5452
斐	-5453
痕	-5454
藻	-5455
忌	-5456
胴	-5457
湘	-5458
伐	-5459
涼	-5460
鋳	-5461
昧	-5462
享	-5463
塾	-5464
循	-5465
擦	-5466
椎	-5467
痴	-5468
肺	-5469
肌	-5470
狐	-5471
繊	-5472
皿	-5473
妃	-5474
跳	-5475
枢	-5476
國	-5477
恨	-5478
剥	-5479
猶	-5480
塊	-5481
鍋	-5482
砕	-5483
漂	-5484
匂	-5485
牽	-5486
曾	-5487
苗	-5488
琴	-5489
脊	-5490
玩	-5491
祀	-5492
塵	-5493
–	-5494
鯨	-5495
墜	-5496
惚	-5497
儒	-5498
柴	-5499
膚	-5500
浩	-5501
狼	-5502
錦	-5503
鐘	-5504
巳	-5505
蝦	-5506
擬	-5507
諦	-5508
λ	-5509
呟	-5510
馳	-5511
崖	-5512
庶	-5513
湧	-5514
錬	-5515
陀	-5516
朗	-5517
唄	-5518
菅	-5519
辻	-5520
菩	-5521
唆	-5522
嘩	-5523
堕	-5524
墨	-5525
洩	-5526
汎	-5527
漏	-5528
穫	-5529
蜂	-5530
鼠	-5531
遥	-5532
披	-5533
綺	-5534
喪	-5535
桐	-5536
稚	-5537
某	-5538
戴	-5539
舶	-5540
讐	-5541
莫	-5542
ا	-5543
綴	-5544
堤	-5545
榛	-5546
醒	-5547
隈	-5548
洛	-5549
粗	-5550
薦	-5551
醍	-5552
醐	-5553
′	-5554
曽	-5555
潰	-5556
棟	-5557
倣	-5558
ヂ	-5559
琉	-5560
把	-5561
肢	-5562
糧	-5563
妊	-5564
彰	-5565
辱	-5566
彗	-5567
撫	-5568
漬	-5569
絹	-5570
鬱	-5571
霞	-5572
頸	-5573
纂	-5574
頓	-5575
漸	-5576
馴	-5577
>	-5578
襟	-5579
淵	-5580
陶	-5581
煩	-5582
豹	-5583
遙	-5584
藍	-5585
賜	-5586
盲	-5587
秦	-5588
篠	-5589
昆	-5590
閲	-5591
茎	-5592
歿	-5593
腫	-5594
赴	-5595
瑞	-5596
禰	-5597
綾	-5598
酢	-5599
★	-5600
慈	-5601
餅	-5602
儘	-5603
憤	-5604
頑	-5605
粛	-5606
汰	-5607
爪	-5608
<	-5609
宴	-5610
沸	-5611
洪	-5612
股	-5613
寮	-5614
尿	-5615
喋	-5616
壌	-5617
泡	-5618
渦	-5619
欺	-5620
牢	-5621
已	-5622
曰	-5623
縫	-5624
〇	-5625
吊	-5626
鴨	-5627
欄	-5628
濁	-5629
喉	-5630
桑	-5631
謙	-5632
践	-5633
遡	-5634
杖	-5635
累	-5636
茨	-5637
芋	-5638
疫	-5639
粧	-5640
ν	-5641
餌	-5642
栃	-5643
旭	-5644
淀	-5645
纏	-5646
曇	-5647
伺	-5648
妥	-5649
棺	-5650
癌	-5651
悶	-5652
閥	-5653
渓	-5654
樺	-5655
輔	-5656
鈍	-5657
ε	-5658
堺	-5659
悠	-5660
麓	-5661
憐	-5662
賑	-5663
尖	-5664
頁	-5665
胎	-5666
曖	-5667
晋	-5668
痩	-5669
屍	-5670
膳	-5671
醸	-5672
戚	-5673
娯	-5674
套	-5675
嶋	-5676
肖	-5677
β	-5678
坑	-5679
濡	-5680
祉	-5681
鍛	-5682
喚	-5683
怠	-5684
虜	-5685
實	-5686
芥	-5687
嫂	-5688
錠	-5689
弄	-5690
π	-5691
噌	-5692
雰	-5693
冥	-5694
壺	-5695
條	-5696
遼	-5697
樽	-5698
升	-5699
堆	-5700
捧	-5701
詣	-5702
磯	-5703
ˈ	-5704
嘲	-5705
哉	-5706
牡	-5707
ο	-5708
∈	-5709
桶	-5710
廿	-5711
箸	-5712
註	-5713
朽	-5714
韻	-5715
穿	-5716
嘗	-5717
眞	-5718
萩	-5719
麺	-5720
ρ	-5721
懲	-5722
顎	-5723
ゑ	-5724
恭	-5725
楼	-5726
狸	-5727
撰	-5728
滴	-5729
蛍	-5730
廉	-5731
雌	-5732
俵	-5733
囚	-5734
翔	-5735
藪	-5736
爾	-5737
准	-5738
嫡	-5739
俄	-5740
歪	-5741
瞭	-5742
賠	-5743
а	-5744
帆	-5745
敦	-5746
癒	-5747
郭	-5748
騰	-5749
租	-5750
σ	-5751
蹟	-5752
剖	-5753
辿	-5754
朴	-5755
棲	-5756
嗣	-5757
滋	-5758
班	-5759
酬	-5760
獅	-5761
槍	-5762
飢	-5763
琵	-5764
琶	-5765
顏	-5766
倶	-5767
填	-5768
懇	-5769
梯	-5770
扶	-5771
拵	-5772
簿	-5773
ぁ	-5774
悉	-5775
蛙	-5776
蛮	-5777
弧	-5778
詠	-5779
逍	-5780
吏	-5781
且	-5782
宏	-5783
藝	-5784
伽	-5785
坪	-5786
о	-5787
柵	-5788
鞭	-5789
粟	-5790
蜜	-5791
拉	-5792
紐	-5793
凶	-5794
ω	-5795
惹	-5796
溢	-5797
迂	-5798
卸	-5799
嶺	-5800
璃	-5801
聯	-5802
袴	-5803
缶	-5804
篤	-5805
蔽	-5806
彙	-5807
拙	-5808
炊	-5809
鳩	-5810
紺	-5811
蝶	-5812
刈	-5813
栖	-5814
畠	-5815
梶	-5816
汝	-5817
頗	-5818
諭	-5819
靖	-5820
厩	-5821
殴	-5822
蕉	-5823
裾	-5824
祐	-5825
罵	-5826
ل	-5827
帥	-5828
瑠	-5829
茫	-5830
τ	-5831
檀	-5832
巾	-5833
怯	-5834
叡	-5835
奔	-5836
抄	-5837
蝋	-5838
汲	-5839
牙	-5840
魏	-5841
痺	-5842
侶	-5843
當	-5844
и	-5845
侮	-5846
赦	-5847
巴	-5848
怨	-5849
錐	-5850
瞳	-5851
仔	-5852
碗	-5853
芭	-5854
窺	-5855
藁	-5856
暁	-5857
耗	-5858
愈	-5859
苛	-5860
杏	-5861
燭	-5862
耶	-5863
綻	-5864
褐	-5865
歸	-5866
劉	-5867
妄	-5868
泌	-5869
嚢	-5870
淳	-5871
輌	-5872
е	-5873
襖	-5874
媛	-5875
咽	-5876
薇	-5877
凹	-5878
霜	-5879
髭	-5880
嫉	-5881
煉	-5882
寐	-5883
弊	-5884
詮	-5885
髯	-5886
麹	-5887
戊	-5888
褒	-5889
δ	-5890
φ	-5891
妬	-5892
儲	-5893
餓	-5894
囁	-5895
杜	-5896
臆	-5897
嗅	-5898
槽	-5899
ι	-5900
刹	-5901
楠	-5902
殉	-5903
慧	-5904
甥	-5905
薔	-5906
楊	-5907
糞	-5908
屯	-5909
蟹	-5910
鞍	-5911
悦	-5912
凱	-5913
脆	-5914
佳	-5915
挫	-5916
罹	-5917
仇	-5918
ς	-5919
岬	-5920
按	-5921
蜘	-5922
牟	-5923
躇	-5924
聲	-5925
ī	-5926
壬	-5927
窪	-5928
縞	-5929
γ	-5930
揆	-5931
晦	-5932
楕	-5933
哺	-5934
醤	-5935
睦	-5936
娠	-5937
蛛	-5938
姻	-5939
屏	-5940
廣	-5941
兇	-5942
蚊	-5943
謹	-5944
耽	-5945
斥	-5946
橘	-5947
狗	-5948
躊	-5949
宵	-5950
焉	-5951
賄	-5952
亮	-5953
焚	-5954
矮	-5955
鳳	-5956
伎	-5957
厄	-5958
吟	-5959
朔	-5960
濯	-5961
腔	-5962
∂	-5963
漕	-5964
嶽	-5965
憑	-5966
灌	-5967
冪	-5968
婿	-5969
槻	-5970
梵	-5971
渇	-5972
眩	-5973
對	-5974
昂	-5975
竣	-5976
讀	-5977
凌	-5978
焔	-5979
虹	-5980
戟	-5981
笹	-5982
剃	-5983
喩	-5984
汐	-5985
螺	-5986
捲	-5987
斑	-5988
椿	-5989
牝	-5990
н	-5991
曝	-5992
裡	-5993
燕	-5994
孟	-5995
屑	-5996
臼	-5997
鱗	-5998
詫	-5999
ə	-6000
ヵ	-6001
皺	-6002
匿	-6003
濫	-6004
箕	-6005
詔	-6006
訣	-6007
采	-6008
р	-6009
臥	-6010
ヅ	-6011
棠	-6012
礁	-6013
梢	-6014
歎	-6015
埃	-6016
胚	-6017
庇	-6018
丙	-6019
閃	-6020
咳	-6021
姦	-6022
圓	-6023
腎	-6024
惣	-6025
冶	-6026
圭	-6027
淫	-6028
惧	-6029
傭	-6030
悼	-6031
柿	-6032
庚	-6033
慕	-6034
溺	-6035
壕	-6036
拗	-6037
烟	-6038
萌	-6039
輯	-6040
慨	-6041
惟	-6042
芦	-6043
Δ	-6044
ي	-6045
酌	-6046
鰭	-6047
κ	-6048
疋	-6049
θ	-6050
凸	-6051
萬	-6052
體	-6053
ː	-6054
廟	-6055
蔓	-6056
謳	-6057
《	-6058
△	-6059
》	-6060
寅	-6061
鄭	-6062
葡	-6063
應	-6064
曳	-6065
沒	-6066
詐	-6067
迅	-6068
酎	-6069
─	-6070
ぃ	-6071
摺	-6072
筐	-6073
爽	-6074
畔	-6075
裔	-6076
轟	-6077
諏	-6078
ヽ	-6079
丼	-6080
愁	-6081
抛	-6082
坦	-6083
姪	-6084
楢	-6085
羞	-6086
俸	-6087
佇	-6088
祷	-6089
狽	-6090
湊	-6091
癪	-6092
會	-6093
攘	-6094
瘍	-6095
餐	-6096
釘	-6097
惡	-6098
膏	-6099
鷲	-6100
灘	-6101
黎	-6102
ر	-6103
巷	-6104
捻	-6105
艶	-6106
袂	-6107
趙	-6108
峨	-6109
賦	-6110
嗜	-6111
搾	-6112
贅	-6113
鞄	-6114
禿	-6115
亥	-6116
伍	-6117
羨	-6118
昏	-6119
挺	-6120
苔	-6121
騨	-6122
亘	-6123
洒	-6124
逞	-6125
瓜	-6126
遽	-6127
畢	-6128
衞	-6129
帖	-6130
逝	-6131
檻	-6132
苑	-6133
藏	-6134
▲	-6135
喝	-6136
嗚	-6137
م	-6138
妓	-6139
巫	-6140
憾	-6141
鵜	-6142
垢	-6143
繕	-6144
á	-6145
奢	-6146
芯	-6147
煎	-6148
唸	-6149
慄	-6150
拐	-6151
遁	-6152
做	-6153
憧	-6154
с	-6155
憩	-6156
肘	-6157
嬌	-6158
盃	-6159
雛	-6160
咎	-6161
譚	-6162
漆	-6163
諮	-6164
竟	-6165
舷	-6166
ü	-6167
■	-6168
畏	-6169
禍	-6170
萄	-6171
薪	-6172
攣	-6173
痙	-6174
榎	-6175
冴	-6176
叶	-6177
處	-6178
ن	-6179
楚	-6180
牌	-6181
鐵	-6182
麿	-6183
彌	-6184
櫛	-6185
罷	-6186
些	-6187
寡	-6188
卯	-6189
毫	-6190
т	-6191
稜	-6192
☆	-6193
匁	-6194
咄	-6195
屡	-6196
嵯	-6197
愕	-6198
頒	-6199
俯	-6200
疇	-6201
裳	-6202
蹄	-6203
朋	-6204
抹	-6205
揉	-6206
殷	-6207
煽	-6208
聘	-6209
喘	-6210
萎	-6211
叉	-6212
魯	-6213
傲	-6214
肴	-6215
逗	-6216
駕	-6217
η	-6218
娼	-6219
董	-6220
吠	-6221
嗟	-6222
聡	-6223
荻	-6224
巌	-6225
柑	-6226
腺	-6227
乎	-6228
壽	-6229
憚	-6230
櫓	-6231
揄	-6232
揶	-6233
樫	-6234
弔	-6235
癇	-6236
蕎	-6237
踪	-6238
飜	-6239
吻	-6240
謁	-6241
哨	-6242
枳	-6243
璧	-6244
絨	-6245
雁	-6246
峯	-6247
茅	-6248
鹸	-6249
薫	-6250
挽	-6251
裟	-6252
鱈	-6253
毅	-6254
乍	-6255
蛋	-6256
鎧	-6257
ū	-6258
袈	-6259
в	-6260
逼	-6261
媚	-6262
溥	-6263
砦	-6264
ψ	-6265
撒	-6266
紗	-6267
變	-6268
煤	-6269
鴻	-6270
嵩	-6271
祇	-6272
輛	-6273
俣	-6274
諫	-6275
叢	-6276
橿	-6277
窃	-6278
虔	-6279
朧	-6280
鬚	-6281
鷺	-6282
嶼	-6283
箪	-6284
舵	-6285
顛	-6286
饉	-6287
瞑	-6288
杵	-6289
貪	-6290
轢	-6291
ヱ	-6292
樋	-6293
茹	-6294
諱	-6295
酉	-6296
栓	-6297
誦	-6298
贋	-6299
撥	-6300
竈	-6301
∞	-6302
厘	-6303
騙	-6304
鸞	-6305
唖	-6306
寵	-6307
竿	-6308
丞	-6309
扮	-6310
蕩	-6311
倅	-6312
寓	-6313
峙	-6314
翳	-6315
訛	-6316
屁	-6317
榴	-6318
遜	-6319
梗	-6320
款	-6321
【	-6322
堵	-6323
庸	-6324
晒	-6325
】	-6326
梟	-6327
欽	-6328
經	-6329
斧	-6330
桟	-6331
к	-6332
緻	-6333
桓	-6334
槌	-6335
毀	-6336
碧	-6337
聚	-6338
觀	-6339
叛	-6340
沓	-6341
疆	-6342
葺	-6343
蕗	-6344
ṃ	-6345
餘	-6346
糾	-6347
胤	-6348
輿	-6349
隋	-6350
鮎	-6351
峻	-6352
縋	-6353
傳	-6354
癸	-6355
蛸	-6356
賓	-6357
鍮	-6358
ヰ	-6359
噺	-6360
囃	-6361
諧	-6362
閤	-6363
爲	-6364
盧	-6365
瞼	-6366
砥	-6367
〔	-6368
〕	-6369
叮	-6370
瀕	-6371
碌	-6372
碓	-6373
雖	-6374
糊	-6375
迹	-6376
陛	-6377
隼	-6378
榜	-6379
л	-6380
’	-6381
縣	-6382
⟩	-6383
唾	-6384
禽	-6385
蕃	-6386
衷	-6387
托	-6388
矯	-6389
ɪ	-6390
‐	-6391
擲	-6392
錫	-6393
顫	-6394
鵬	-6395
丑	-6396
厨	-6397
奄	-6398
綜	-6399
緋	-6400
鞘	-6401
餃	-6402
Ω	-6403
卦	-6404
奧	-6405
渾	-6406
遵	-6407
允	-6408
廓	-6409
漱	-6410
飴	-6411
串	-6412
掠	-6413
椒	-6414
檜	-6415
覺	-6416
邊	-6417
鴎	-6418
‰	-6419
寇	-6420
擢	-6421
渕	-6422
痘	-6423
鯉	-6424
燐	-6425
腑	-6426
礫	-6427
椰	-6428
楯	-6429
藉	-6430
關	-6431
廠	-6432
棘	-6433
簾	-6434
饒	-6435
و	-6436
笥	-6437
箔	-6438
蒔	-6439
漑	-6440
鴉	-6441
≠	-6442
戌	-6443
槃	-6444
涅	-6445
紡	-6446
夥	-6447
數	-6448
炒	-6449
±	-6450
晃	-6451
翠	-6452
發	-6453
矩	-6454
竪	-6455
綬	-6456
灸	-6457
蘆	-6458
諜	-6459
掩	-6460
嘱	-6461
葦	-6462
蟻	-6463
賤	-6464
í	-6465
饗	-6466
ä	-6467
樂	-6468
堰	-6469
澱	-6470
于	-6471
爛	-6472
鋏	-6473
靄	-6474
≤	-6475
袁	-6476
辷	-6477
ö	-6478
◇	-6479
嵌	-6480
淑	-6481
瘤	-6482
譯	-6483
邑	-6484
嚀	-6485
氾	-6486
畫	-6487
舜	-6488
逓	-6489
嚇	-6490
團	-6491
曼	-6492
諡	-6493
倦	-6494
拷	-6495
旺	-6496
粕	-6497
鳶	-6498
鍬	-6499
拼	-6500
狡	-6501
繩	-6502
跫	-6503
ب	-6504
ة	-6505
兩	-6506
茸	-6507
娶	-6508
屠	-6509
楔	-6510
濱	-6511
蠍	-6512
橙	-6513
膠	-6514
敲	-6515
萱	-6516
蝙	-6517
蝠	-6518
頷	-6519
麟	-6520
∫	-6521
儡	-6522
冨	-6523
呻	-6524
粥	-6525
倚	-6526
傀	-6527
卜	-6528
鰻	-6529
ı	-6530
杭	-6531
疏	-6532
捏	-6533
椽	-6534
檎	-6535
匈	-6536
壱	-6537
牘	-6538
彷	-6539
吃	-6540
啼	-6541
姑	-6542
扁	-6543
掟	-6544
梓	-6545
璽	-6546
絆	-6547
聳	-6548
痢	-6549
蠅	-6550
鋒	-6551
錆	-6552
婢	-6553
湛	-6554
·	-6555
د	-6556
捷	-6557
濠	-6558
劫	-6559
勒	-6560
弛	-6561
捗	-6562
柢	-6563
臺	-6564
辣	-6565
Γ	-6566
銚	-6567
椀	-6568
ί	-6569
徽	-6570
柾	-6571
稍	-6572
酪	-6573
墾	-6574
沃	-6575
衙	-6576
駁	-6577
兜	-6578
瞞	-6579
芙	-6580
鉾	-6581
髷	-6582
س	-6583
圃	-6584
贔	-6585
寢	-6586
肱	-6587
à	-6588
è	-6589
∑	-6590
亢	-6591
艘	-6592
饅	-6593
š	-6594
嘔	-6595
夭	-6596
梱	-6597
熙	-6598
與	-6599
蔣	-6600
堡	-6601
⋅	-6602
乘	-6603
祟	-6604
χ	-6605
埒	-6606
鶯	-6607
鸚	-6608
斷	-6609
毘	-6610
燻	-6611
虞	-6612
鵡	-6613
Ζ	-6614
蜀	-6615
蝕	-6616
軋	-6617
鰹	-6618
戔	-6619
篆	-6620
蓬	-6621
蟇	-6622
佛	-6623
箒	-6624
籐	-6625
蚕	-6626
ό	-6627
泄	-6628
猥	-6629
珈	-6630
臘	-6631
踵	-6632
釧	-6633
鯛	-6634
帷	-6635
恣	-6636
瀧	-6637
甫	-6638
塑	-6639
琲	-6640
畝	-6641
靡	-6642
髙	-6643
罠	-6644
聊	-6645
鍾	-6646
玲	-6647
脛	-6648
珊	-6649
苫	-6650
÷	-6651
凭	-6652
游	-6653
犀	-6654
秤	-6655
ō	-6656
蒐	-6657
蓉	-6658
袢	-6659
炬	-6660
熾	-6661
翅	-6662
鞠	-6663
魄	-6664
ē	-6665
瘠	-6666
站	-6667
υ	-6668
咸	-6669
啣	-6670
爬	-6671
獨	-6672
珪	-6673
鋸	-6674
仄	-6675
俥	-6676
墟	-6677
孵	-6678
恢	-6679
沌	-6680
燵	-6681
繍	-6682
葵	-6683
蛭	-6684
奸	-6685
渥	-6686
辟	-6687
鮫	-6688
屹	-6689
猾	-6690
謬	-6691
躯	-6692
斤	-6693
疵	-6694
耆	-6695
脩	-6696
芒	-6697
跋	-6698
鰐	-6699
Λ	-6700
—	-6701
ぇ	-6702
侘	-6703
惰	-6704
稔	-6705
虱	-6706
्	-6707
朦	-6708
穢	-6709
ó	-6710
碍	-6711
膵	-6712
蝉	-6713
劃	-6714
窯	-6715
箋	-6716
埴	-6717
樟	-6718
箏	-6719
蹲	-6720
ɛ	-6721
⁄	-6722
瑚	-6723
縊	-6724
♭	-6725
侠	-6726
懺	-6727
硯	-6728
薙	-6729
д	-6730
ه	-6731
嚆	-6732
屓	-6733
崗	-6734
悄	-6735
慥	-6736
戮	-6737
殘	-6738
襦	-6739
閩	-6740
󠄁	-6741
乖	-6742
倹	-6743
毬	-6744
ξ	-6745
宦	-6746
斡	-6747
牒	-6748
羹	-6749
筏	-6750
諺	-6751
輻	-6752
‖	-6753
□	-6754
琥	-6755
茲	-6756
韮	-6757
戲	-6758
靭	-6759
憫	-6760
溌	-6761
濤	-6762
肋	-6763
葱	-6764
邇	-6765
⟨	-6766
珀	-6767
痒	-6768
芹	-6769
誅	-6770
點	-6771
嘴	-6772
攫	-6773
祠	-6774
諷	-6775
餡	-6776
鵞	-6777
庖	-6778
欣	-6779
渠	-6780
珂	-6781
禮	-6782
腿	-6783
號	-6784
阮	-6785
鰓	-6786
у	-6787
棹	-6788
濶	-6789
續	-6790
$	-6791
迭	-6792
й	-6793
ع	-6794
剋	-6795
埠	-6796
弐	-6797
捩	-6798
曙	-6799
滲	-6800
炸	-6801
錮	-6802
ñ	-6803
Σ	-6804
濾	-6805
鮭	-6806
ç	-6807
я	-6808
寫	-6809
朕	-6810
滿	-6811
眸	-6812
絣	-6813
雜	-6814
י	-6815
淘	-6816
畷	-6817
睫	-6818
肚	-6819
膿	-6820
菰	-6821
諒	-6822
譬	-6823
辨	-6824
佑	-6825
几	-6826
拔	-6827
擡	-6828
暢	-6829
渤	-6830
疹	-6831
筵	-6832
綸	-6833
訝	-6834
⋯	-6835
僑	-6836
僻	-6837
啜	-6838
漲	-6839
繪	-6840
隕	-6841
徊	-6842
抒	-6843
沁	-6844
竺	-6845
霽	-6846
ú	-6847
̇	-6848
ج	-6849
什	-6850
塹	-6851
抔	-6852
撞	-6853
渚	-6854
熹	-6855
躁	-6856
颯	-6857
魁	-6858
ά	-6859
參	-6860
姐	-6861
弼	-6862
掬	-6863
濟	-6864
畸	-6865
鞋	-6866
齋	-6867
ा	-6868
捌	-6869
澹	-6870
盥	-6871
祚	-6872
蟲	-6873
蠢	-6874
郁	-6875
鉉	-6876
鍔	-6877
琢	-6878
絃	-6879
舐	-6880
茄	-6881
衒	-6882
雫	-6883
匙	-6884
嚥	-6885
截	-6886
旱	-6887
熔	-6888
瞥	-6889
翰	-6890
邱	-6891
б	-6892
ت	-6893
暈	-6894
殲	-6895
繃	-6896
脾	-6897
亨	-6898
圀	-6899
扨	-6900
旁	-6901
梧	-6902
綽	-6903
跪	-6904
默	-6905
凋	-6906
瓢	-6907
緬	-6908
莢	-6909
闊	-6910
æ	-6911
佩	-6912
哭	-6913
腋	-6914
雉	-6915
∗	-6916
尹	-6917
擾	-6918
櫻	-6919
泪	-6920
祢	-6921
苹	-6922
陋	-6923
冑	-6924
嗄	-6925
圖	-6926
堯	-6927
巽	-6928
從	-6929
恍	-6930
疽	-6931
襄	-6932
誂	-6933
鯖	-6934
С	-6935
≒	-6936
凰	-6937
噤	-6938
甕	-6939
禹	-6940
閭	-6941
顋	-6942
齎	-6943
孕	-6944
櫃	-6945
磔	-6946
蕪	-6947
豈	-6948
鼎	-6949
ṇ	-6950
厥	-6951
姜	-6952
榊	-6953
糠	-6954
繻	-6955
蔦	-6956
≥	-6957
卷	-6958
竦	-6959
菫	-6960
趨	-6961
閘	-6962
陪	-6963
ь	-6964
奘	-6965
恬	-6966
瀾	-6967
聟	-6968
臍	-6969
賂	-6970
邁	-6971
酋	-6972
ᠠ	-6973
拮	-6974
攪	-6975
荼	-6976
ζ	-6977
▼	-6978
剪	-6979
氈	-6980
浚	-6981
褪	-6982
證	-6983
輕	-6984
雍	-6985
俘	-6986
喇	-6987
悧	-6988
捺	-6989
聾	-6990
舒	-6991
赭	-6992
釦	-6993
鑿	-6994
ɔ	-6995
咒	-6996
帛	-6997
柘	-6998
槙	-6999
瀋	-7000
窩	-7001
蓑	-7002
頽	-7003
@	-7004
ʃ	-7005
•	-7006
冤	-7007
汀	-7008
禎	-7009
闕	-7010
ħ	-7011
幟	-7012
旛	-7013
朶	-7014
櫂	-7015
皐	-7016
薨	-7017
蛾	-7018
蹂	-7019
É	-7020
м	-7021
娑	-7022
宕	-7023
戰	-7024
拿	-7025
翡	-7026
頌	-7027
έ	-7028
呶	-7029
悸	-7030
癲	-7031
訃	-7032
迸	-7033
ʊ	-7034
杓	-7035
溯	-7036
耀	-7037
蠣	-7038
靜	-7039
ی	-7040
⇒	-7041
兌	-7042
宍	-7043
毯	-7044
穣	-7045
紆	-7046
繞	-7047
跟	-7048
鬢	-7049
鹽	-7050
ו	-7051
吝	-7052
咀	-7053
嬰	-7054
廼	-7055
徨	-7056
欝	-7057
篭	-7058
賣	-7059
驗	-7060
â	-7061
懊	-7062
椋	-7063
漿	-7064
灼	-7065
舘	-7066
鈔	-7067
馨	-7068
ş	-7069
п	-7070
偈	-7071
彬	-7072
慊	-7073
懼	-7074
涜	-7075
疊	-7076
袷	-7077
鍼	-7078
飄	-7079
Π	-7080
哄	-7081
夙	-7082
瑣	-7083
襯	-7084
躙	-7085
鹵	-7086
襷	-7087
鉤	-7088
鑽	-7089
з	-7090
א	-7091
ح	-7092
ق	-7093
浙	-7094
賽	-7095
轉	-7096
黍	-7097
ר	-7098
曠	-7099
瘡	-7100
竄	-7101
菖	-7102
貶	-7103
髮	-7104
魃	-7105
́	-7106
Φ	-7107
ṭ	-7108
哈	-7109
梃	-7110
燒	-7111
荏	-7112
轍	-7113
麭	-7114
偲	-7115
嬪	-7116
徙	-7117
揖	-7118
斃	-7119
樵	-7120
沫	-7121
罐	-7122
Т	-7123
र	-7124
幇	-7125
暸	-7126
煕	-7127
腱	-7128
謨	-7129
錘	-7130
龜	-7131
г	-7132
ك	-7133
⇔	-7134
●	-7135
呵	-7136
桝	-7137
訶	-7138
隘	-7139
韋	-7140
ḥ	-7141
∧	-7142
帶	-7143
愴	-7144
煖	-7145
鬘	-7146
圍	-7147
擧	-7148
矣	-7149
籤	-7150
衍	-7151
贄	-7152
饋	-7153
ɑ	-7154
ч	-7155
ش	-7156
徘	-7157
燦	-7158
紘	-7159
蟄	-7160
謗	-7161
霖	-7162
ָ	-7163
假	-7164
址	-7165
怜	-7166
楓	-7167
滔	-7168
獰	-7169
疼	-7170
祓	-7171
艸	-7172
﨑	-7173
ŋ	-7174
ы	-7175
僭	-7176
喬	-7177
廬	-7178
滓	-7179
瑕	-7180
笏	-7181
籾	-7182
麩	-7183
≡	-7184
兒	-7185
劾	-7186
彿	-7187
慟	-7188
挾	-7189
泛	-7190
誼	-7191
讒	-7192
陝	-7193
頤	-7194
哩	-7195
喀	-7196
單	-7197
坤	-7198
廂	-7199
蕭	-7200
轡	-7201
ˆ	-7202
←	-7203
⊂	-7204
慇	-7205
煌	-7206
糺	-7207
縷	-7208
肆	-7209
脣	-7210
舍	-7211
辭	-7212
閾	-7213
顰	-7214
鵠	-7215
¬	-7216
ᡠ	-7217
慙	-7218
懃	-7219
桔	-7220
瑜	-7221
稗	-7222
稙	-7223
篁	-7224
簒	-7225
繹	-7226
迚	-7227
隱	-7228
麒	-7229
َ	-7230
摯	-7231
淮	-7232
燗	-7233
癩	-7234
芻	-7235
賈	-7236
跣	-7237
醉	-7238
徂	-7239
懶	-7240
楷	-7241
臀	-7242
藥	-7243
蟠	-7244
褌	-7245
飮	-7246
鯱	-7247
ƒ	-7248
་	-7249
匡	-7250
寥	-7251
寶	-7252
將	-7253
崔	-7254
抓	-7255
搗	-7256
摸	-7257
稱	-7258
籃	-7259
脹	-7260
臂	-7261
蔡	-7262
蕈	-7263
誹	-7264
顆	-7265
驕	-7266
偸	-7267
檗	-7268
欅	-7269
炙	-7270
玖	-7271
痰	-7272
閻	-7273
黛	-7274
〆	-7275
宥	-7276
弗	-7277
徠	-7278
戎	-7279
瓊	-7280
豫	-7281
釋	-7282
鼾	-7283
ɡ	-7284
ה	-7285
叭	-7286
啄	-7287
宸	-7288
崑	-7289
槐	-7290
稠	-7291
♠	-7292
悍	-7293
樗	-7294
ś	-7295
ש	-7296
剌	-7297
匍	-7298
嘯	-7299
壻	-7300
涌	-7301
滸	-7302
艮	-7303
苅	-7304
蝮	-7305
醇	-7306
隨	-7307
駝	-7308
Ψ	-7309
त	-7310
攀	-7311
槇	-7312
焙	-7313
爭	-7314
疱	-7315
稻	-7316
荊	-7317
ᠨ	-7318
√	-7319
伜	-7320
匐	-7321
啻	-7322
杷	-7323
枇	-7324
濛	-7325
腥	-7326
蹶	-7327
鱒	-7328
ز	-7329
佃	-7330
俠	-7331
塙	-7332
夾	-7333
搏	-7334
晰	-7335
枡	-7336
榮	-7337
涎	-7338
爻	-7339
筮	-7340
緞	-7341
纒	-7342
襞	-7343
趾	-7344
輳	-7345
釉	-7346
鞆	-7347
ύ	-7348
ṣ	-7349
傚	-7350
恃	-7351
桿	-7352
歇	-7353
沐	-7354
纔	-7355
舳	-7356
蒜	-7357
蜃	-7358
褄	-7359
逡	-7360
醫	-7361
鍍	-7362
鮒	-7363
А	-7364
‘	-7365
♡	-7366
亂	-7367
勞	-7368
斂	-7369
絢	-7370
莱	-7371
蕾	-7372
虻	-7373
險	-7374
霰	-7375
髣	-7376
髴	-7377
ê	-7378
剽	-7379
嗤	-7380
噸	-7381
姥	-7382
婉	-7383
懷	-7384
碩	-7385
筍	-7386
腮	-7387
莞	-7388
蕊	-7389
薯	-7390
躋	-7391
辯	-7392
錢	-7393
ô	-7394
ᡳ	-7395
∼	-7396
扈	-7397
據	-7398
權	-7399
璋	-7400
苟	-7401
躾	-7402
銜	-7403
隧	-7404
鰯	-7405
黴	-7406
ʔ	-7407
憬	-7408
憺	-7409
拌	-7410
涵	-7411
逅	-7412
邂	-7413
馭	-7414
ˌ	-7415
̄	-7416
न	-7417
區	-7418
坡	-7419
巖	-7420
棕	-7421
總	-7422
艤	-7423
荀	-7424
赫	-7425
鄧	-7426
ή	-7427
咢	-7428
奠	-7429
拇	-7430
撓	-7431
柩	-7432
瞰	-7433
罫	-7434
耄	-7435
酊	-7436
Α	-7437
К	-7438
壷	-7439
弩	-7440
猜	-7441
盡	-7442
窶	-7443
簀	-7444
艱	-7445
跛	-7446
鄙	-7447
飩	-7448
齟	-7449
齬	-7450
म	-7451
價	-7452
奕	-7453
婁	-7454
嶮	-7455
惶	-7456
橄	-7457
甦	-7458
盜	-7459
簪	-7460
舅	-7461
螢	-7462
褻	-7463
謔	-7464
贖	-7465
酩	-7466
鐐	-7467
У	-7468
♯	-7469
咤	-7470
涸	-7471
瀑	-7472
狄	-7473
碇	-7474
禧	-7475
穎	-7476
葭	-7477
詭	-7478
軛	-7479
鑵	-7480
雹	-7481
麾	-7482
∘	-7483
劈	-7484
惠	-7485
穉	-7486
簇	-7487
繡	-7488
Р	-7489
欖	-7490
淺	-7491
瀝	-7492
疳	-7493
翹	-7494
蝎	-7495
銑	-7496
驢	-7497
齒	-7498
Ε	-7499
∨	-7500
━	-7501
凜	-7502
寞	-7503
幀	-7504
愍	-7505
撚	-7506
棍	-7507
淆	-7508
狎	-7509
獺	-7510
眷	-7511
綏	-7512
芬	-7513
蛤	-7514
踰	-7515
陞	-7516
髏	-7517
ف	-7518
∇	-7519
俟	-7520
凧	-7521
匆	-7522
咫	-7523
撹	-7524
玻	-7525
篥	-7526
篳	-7527
肇	-7528
肛	-7529
譽	-7530
谿	-7531
豐	-7532
赳	-7533
鋪	-7534
騷	-7535
ц	-7536
∀	-7537
♥	-7538
偕	-7539
嗽	-7540
寳	-7541
淹	-7542
莽	-7543
鏃	-7544
閨	-7545
霍	-7546
ɐ	-7547
ב	-7548
亞	-7549
僂	-7550
崙	-7551
愧	-7552
杣	-7553
淪	-7554
烹	-7555
袍	-7556
譫	-7557
鎚	-7558
饂	-7559
駱	-7560
齧	-7561
Κ	-7562
ώ	-7563
ि	-7564
∪	-7565
亙	-7566
倆	-7567
啖	-7568
恕	-7569
拜	-7570
琳	-7571
瑪	-7572
盂	-7573
聽	-7574
裝	-7575
諌	-7576
踞	-7577
鋤	-7578
髑	-7579
ì	-7580
∩	-7581
┃	-7582
勺	-7583
嗇	-7584
悴	-7585
晝	-7586
框	-7587
楳	-7588
烙	-7589
畦	-7590
砺	-7591
羲	-7592
蹙	-7593
闢	-7594
饑	-7595
𠮷	-7596
≪	-7597
凪	-7598
厠	-7599
媼	-7600
怙	-7601
懣	-7602
漉	-7603
礙	-7604
礬	-7605
禦	-7606
窘	-7607
筥	-7608
縹	-7609
鬨	-7610
魘	-7611
ă	-7612
ʿ	-7613
ַ	-7614
∏	-7615
ぅ	-7616
仍	-7617
佗	-7618
杢	-7619
洟	-7620
渭	-7621
濘	-7622
牀	-7623
胥	-7624
迪	-7625
遑	-7626
闍	-7627
靱	-7628
鼈	-7629
ß	-7630
ã	-7631
ɾ	-7632
ʒ	-7633
М	-7634
า	-7635
吼	-7636
咆	-7637
壜	-7638
抉	-7639
眇	-7640
瞠	-7641
稈	-7642
蕨	-7643
蜥	-7644
頚	-7645
ò	-7646
ל	-7647
أ	-7648
ṅ	-7649
│	-7650
倖	-7651
傴	-7652
尠	-7653
崋	-7654
彅	-7655
拂	-7656
渺	-7657
甜	-7658
詛	-7659
謄	-7660
闖	-7661
鶉	-7662
鷗	-7663
ð	-7664
ּ	-7665
ᡝ	-7666
咬	-7667
喙	-7668
噪	-7669
徃	-7670
檄	-7671
澳	-7672
狹	-7673
睾	-7674
笊	-7675
蜴	-7676
蝸	-7677
鑼	-7678
î	-7679
ɒ	-7680
ɨ	-7681
स	-7682
◎	-7683
♪	-7684
憊	-7685
拱	-7686
杳	-7687
甸	-7688
穆	-7689
菟	-7690
靈	-7691
ِ	-7692
ᡤ	-7693
〝	-7694
儚	-7695
刎	-7696
囀	-7697
媾	-7698
忿	-7699
搦	-7700
撈	-7701
穽	-7702
蚤	-7703
蛆	-7704
赧	-7705
躅	-7706
鞨	-7707
Č	-7708
خ	-7709
嚼	-7710
姙	-7711
媽	-7712
戀	-7713
潭	-7714
瀉	-7715
獪	-7716
瑛	-7717
甞	-7718
紂	-7719
絲	-7720
繭	-7721
艫	-7722
蹈	-7723
躑	-7724
轎	-7725
邉	-7726
錨	-7727
顗	-7728
鹹	-7729
ّ	-7730
◆	-7731
册	-7732
奎	-7733
巓	-7734
擅	-7735
狛	-7736
猩	-7737
